unsigned char selfie_segmentation_onnx[] = {
  0x08, 0x06, 0x12, 0x07, 0x74, 0x66, 0x32, 0x6f, 0x6e, 0x6e, 0x78, 0x1a,
  0x05, 0x31, 0x2e, 0x38, 0x2e, 0x34, 0x3a, 0xd2, 0xa8, 0x1b, 0x0a, 0x41,
  0x0a, 0x09, 0x69, 0x6e, 0x70, 0x75, 0x74, 0x5f, 0x31, 0x3a, 0x30, 0x12,
  0x0b, 0x43, 0x6f, 0x6e, 0x76, 0x32, 0x44, 0x5f, 0x5f, 0x36, 0x3a, 0x30,
  0x1a, 0x09, 0x43, 0x6f, 0x6e, 0x76, 0x32, 0x44, 0x5f, 0x5f, 0x36, 0x22,
  0x09, 0x54, 0x72, 0x61, 0x6e, 0x73, 0x70, 0x6f, 0x73, 0x65, 0x2a, 0x11,
  0x0a, 0x04, 0x70, 0x65, 0x72, 0x6d, 0x40, 0x00, 0x40, 0x03, 0x40, 0x01,
  0x40, 0x02, 0xa0, 0x01, 0x07, 0x0a, 0x9c, 0x01, 0x0a, 0x0b, 0x43, 0x6f,
  0x6e, 0x76, 0x32, 0x44, 0x5f, 0x5f, 0x36, 0x3a, 0x30, 0x0a, 0x0f, 0x43,
  0x6f, 0x6e, 0x76, 0x32, 0x44, 0x2f, 0x66, 0x69, 0x6c, 0x74, 0x65, 0x72,
  0x3a, 0x30, 0x0a, 0x0c, 0x63, 0x6f, 0x6e, 0x76, 0x32, 0x64, 0x5f, 0x31,
  0x2f, 0x79, 0x3a, 0x30, 0x12, 0x0b, 0x43, 0x6f, 0x6e, 0x76, 0x5f, 0x5f,
  0x32, 0x32, 0x31, 0x3a, 0x30, 0x1a, 0x09, 0x43, 0x6f, 0x6e, 0x76, 0x5f,
  0x5f, 0x32, 0x32, 0x31, 0x22, 0x04, 0x43, 0x6f, 0x6e, 0x76, 0x2a, 0x12,
  0x0a, 0x09, 0x64, 0x69, 0x6c, 0x61, 0x74, 0x69, 0x6f, 0x6e, 0x73, 0x40,
  0x01, 0x40, 0x01, 0xa0, 0x01, 0x07, 0x2a, 0x10, 0x0a, 0x07, 0x73, 0x74,
  0x72, 0x69, 0x64, 0x65, 0x73, 0x40, 0x02, 0x40, 0x02, 0xa0, 0x01, 0x07,
  0x2a, 0x15, 0x0a, 0x0c, 0x6b, 0x65, 0x72, 0x6e, 0x65, 0x6c, 0x5f, 0x73,
  0x68, 0x61, 0x70, 0x65, 0x40, 0x03, 0x40, 0x03, 0xa0, 0x01, 0x07, 0x2a,
  0x11, 0x0a, 0x04, 0x70, 0x61, 0x64, 0x73, 0x40, 0x00, 0x40, 0x00, 0x40,
  0x01, 0x40, 0x01, 0xa0, 0x01, 0x07, 0x3a, 0x00, 0x0a, 0x33, 0x0a, 0x0b,
  0x43, 0x6f, 0x6e, 0x76, 0x5f, 0x5f, 0x32, 0x32, 0x31, 0x3a, 0x30, 0x0a,
  0x13, 0x63, 0x6f, 0x6e, 0x73, 0x74, 0x5f, 0x66, 0x6f, 0x6c, 0x64, 0x5f,
  0x6f, 0x70, 0x74, 0x5f, 0x5f, 0x34, 0x39, 0x31, 0x12, 0x05, 0x61, 0x64,
  0x64, 0x3a, 0x30, 0x1a, 0x03, 0x61, 0x64, 0x64, 0x22, 0x03, 0x41, 0x64,
  0x64, 0x0a, 0x41, 0x0a, 0x05, 0x61, 0x64, 0x64, 0x3a, 0x30, 0x0a, 0x10,
  0x52, 0x65, 0x6c, 0x75, 0x36, 0x5f, 0x38, 0x5f, 0x6d, 0x69, 0x6e, 0x5f,
  0x5f, 0x31, 0x30, 0x39, 0x0a, 0x10, 0x52, 0x65, 0x6c, 0x75, 0x36, 0x5f,
  0x39, 0x5f, 0x6d, 0x61, 0x78, 0x5f, 0x5f, 0x31, 0x32, 0x32, 0x12, 0x07,
  0x52, 0x65, 0x6c, 0x75, 0x36, 0x3a, 0x30, 0x1a, 0x05, 0x52, 0x65, 0x6c,
  0x75, 0x36, 0x22, 0x04, 0x43, 0x6c, 0x69, 0x70, 0x0a, 0x26, 0x0a, 0x0a,
  0x6d, 0x75, 0x6c, 0x5f, 0x31, 0x33, 0x2f, 0x79, 0x3a, 0x30, 0x0a, 0x07,
  0x52, 0x65, 0x6c, 0x75, 0x36, 0x3a, 0x30, 0x12, 0x05, 0x6d, 0x75, 0x6c,
  0x3a, 0x30, 0x1a, 0x03, 0x6d, 0x75, 0x6c, 0x22, 0x03, 0x4d, 0x75, 0x6c,
  0x0a, 0x29, 0x0a, 0x0b, 0x43, 0x6f, 0x6e, 0x76, 0x5f, 0x5f, 0x32, 0x32,
  0x31, 0x3a, 0x30, 0x0a, 0x05, 0x6d, 0x75, 0x6c, 0x3a, 0x30, 0x12, 0x07,
  0x6d, 0x75, 0x6c, 0x5f, 0x31, 0x3a, 0x30, 0x1a, 0x05, 0x6d, 0x75, 0x6c,
  0x5f, 0x31, 0x22, 0x03, 0x4d, 0x75, 0x6c, 0x0a, 0x9c, 0x01, 0x0a, 0x07,
  0x6d, 0x75, 0x6c, 0x5f, 0x31, 0x3a, 0x30, 0x0a, 0x11, 0x43, 0x6f, 0x6e,
  0x76, 0x32, 0x44, 0x5f, 0x32, 0x2f, 0x66, 0x69, 0x6c, 0x74, 0x65, 0x72,
  0x3a, 0x30, 0x0a, 0x0e, 0x63, 0x6f, 0x6e, 0x76, 0x32, 0x64, 0x5f, 0x31,
  0x5f, 0x31, 0x2f, 0x79, 0x3a, 0x30, 0x12, 0x0b, 0x43, 0x6f, 0x6e, 0x76,
  0x5f, 0x5f, 0x32, 0x32, 0x34, 0x3a, 0x30, 0x1a, 0x09, 0x43, 0x6f, 0x6e,
  0x76, 0x5f, 0x5f, 0x32, 0x32, 0x34, 0x22, 0x04, 0x43, 0x6f, 0x6e, 0x76,
  0x2a, 0x12, 0x0a, 0x09, 0x64, 0x69, 0x6c, 0x61, 0x74, 0x69, 0x6f, 0x6e,
  0x73, 0x40, 0x01, 0x40, 0x01, 0xa0, 0x01, 0x07, 0x2a, 0x10, 0x0a, 0x07,
  0x73, 0x74, 0x72, 0x69, 0x64, 0x65, 0x73, 0x40, 0x01, 0x40, 0x01, 0xa0,
  0x01, 0x07, 0x2a, 0x15, 0x0a, 0x0c, 0x6b, 0x65, 0x72, 0x6e, 0x65, 0x6c,
  0x5f, 0x73, 0x68, 0x61, 0x70, 0x65, 0x40, 0x01, 0x40, 0x01, 0xa0, 0x01,
  0x07, 0x2a, 0x11, 0x0a, 0x04, 0x70, 0x61, 0x64, 0x73, 0x40, 0x00, 0x40,
  0x00, 0x40, 0x00, 0x40, 0x00, 0xa0, 0x01, 0x07, 0x3a, 0x00, 0x0a, 0x23,
  0x0a, 0x0b, 0x43, 0x6f, 0x6e, 0x76, 0x5f, 0x5f, 0x32, 0x32, 0x34, 0x3a,
  0x30, 0x12, 0x07, 0x72, 0x65, 0x5f, 0x6c, 0x75, 0x3a, 0x30, 0x1a, 0x05,
  0x72, 0x65, 0x5f, 0x6c, 0x75, 0x22, 0x04, 0x52, 0x65, 0x6c, 0x75, 0x0a,
  0xb2, 0x01, 0x0a, 0x07, 0x72, 0x65, 0x5f, 0x6c, 0x75, 0x3a, 0x30, 0x0a,
  0x13, 0x63, 0x6f, 0x6e, 0x73, 0x74, 0x5f, 0x66, 0x6f, 0x6c, 0x64, 0x5f,
  0x6f, 0x70, 0x74, 0x5f, 0x5f, 0x34, 0x36, 0x30, 0x0a, 0x14, 0x64, 0x65,
  0x70, 0x74, 0x68, 0x77, 0x69, 0x73, 0x65, 0x5f, 0x63, 0x6f, 0x6e, 0x76,
  0x32, 0x64, 0x2f, 0x79, 0x3a, 0x30, 0x12, 0x0b, 0x43, 0x6f, 0x6e, 0x76,
  0x5f, 0x5f, 0x32, 0x32, 0x35, 0x3a, 0x30, 0x1a, 0x09, 0x43, 0x6f, 0x6e,
  0x76, 0x5f, 0x5f, 0x32, 0x32, 0x35, 0x22, 0x04, 0x43, 0x6f, 0x6e, 0x76,
  0x2a, 0x12, 0x0a, 0x09, 0x64, 0x69, 0x6c, 0x61, 0x74, 0x69, 0x6f, 0x6e,
  0x73, 0x40, 0x01, 0x40, 0x01, 0xa0, 0x01, 0x07, 0x2a, 0x10, 0x0a, 0x07,
  0x73, 0x74, 0x72, 0x69, 0x64, 0x65, 0x73, 0x40, 0x02, 0x40, 0x02, 0xa0,
  0x01, 0x07, 0x2a, 0x15, 0x0a, 0x0c, 0x6b, 0x65, 0x72, 0x6e, 0x65, 0x6c,
  0x5f, 0x73, 0x68, 0x61, 0x70, 0x65, 0x40, 0x03, 0x40, 0x03, 0xa0, 0x01,
  0x07, 0x2a, 0x0c, 0x0a, 0x05, 0x67, 0x72, 0x6f, 0x75, 0x70, 0x18, 0x10,
  0xa0, 0x01, 0x02, 0x2a, 0x11, 0x0a, 0x04, 0x70, 0x61, 0x64, 0x73, 0x40,
  0x00, 0x40, 0x00, 0x40, 0x01, 0x40, 0x01, 0xa0, 0x01, 0x07, 0x3a, 0x00,
  0x0a, 0x27, 0x0a, 0x0b, 0x43, 0x6f, 0x6e, 0x76, 0x5f, 0x5f, 0x32, 0x32,
  0x35, 0x3a, 0x30, 0x12, 0x09, 0x72, 0x65, 0x5f, 0x6c, 0x75, 0x5f, 0x31,
  0x3a, 0x30, 0x1a, 0x07, 0x72, 0x65, 0x5f, 0x6c, 0x75, 0x5f, 0x31, 0x22,
  0x04, 0x52, 0x65, 0x6c, 0x75, 0x0a, 0x89, 0x01, 0x0a, 0x09, 0x72, 0x65,
  0x5f, 0x6c, 0x75, 0x5f, 0x31, 0x3a, 0x30, 0x12, 0x23, 0x61, 0x76, 0x65,
  0x72, 0x61, 0x67, 0x65, 0x5f, 0x70, 0x6f, 0x6f, 0x6c, 0x69, 0x6e, 0x67,
  0x32, 0x64, 0x5f, 0x61, 0x76, 0x67, 0x70, 0x6f, 0x6f, 0x6c, 0x2f, 0x41,
  0x76, 0x67, 0x50, 0x6f, 0x6f, 0x6c, 0x3a, 0x30, 0x1a, 0x21, 0x61, 0x76,
  0x65, 0x72, 0x61, 0x67, 0x65, 0x5f, 0x70, 0x6f, 0x6f, 0x6c, 0x69, 0x6e,
  0x67, 0x32, 0x64, 0x5f, 0x61, 0x76, 0x67, 0x70, 0x6f, 0x6f, 0x6c, 0x2f,
  0x41, 0x76, 0x67, 0x50, 0x6f, 0x6f, 0x6c, 0x22, 0x0b, 0x41, 0x76, 0x65,
  0x72, 0x61, 0x67, 0x65, 0x50, 0x6f, 0x6f, 0x6c, 0x2a, 0x10, 0x0a, 0x07,
  0x73, 0x74, 0x72, 0x69, 0x64, 0x65, 0x73, 0x40, 0x40, 0x40, 0x40, 0xa0,
  0x01, 0x07, 0x2a, 0x15, 0x0a, 0x0c, 0x6b, 0x65, 0x72, 0x6e, 0x65, 0x6c,
  0x5f, 0x73, 0x68, 0x61, 0x70, 0x65, 0x40, 0x40, 0x40, 0x40, 0xa0, 0x01,
  0x07, 0x0a, 0xa5, 0x01, 0x0a, 0x23, 0x61, 0x76, 0x65, 0x72, 0x61, 0x67,
  0x65, 0x5f, 0x70, 0x6f, 0x6f, 0x6c, 0x69, 0x6e, 0x67, 0x32, 0x64, 0x5f,
  0x61, 0x76, 0x67, 0x70, 0x6f, 0x6f, 0x6c, 0x2f, 0x41, 0x76, 0x67, 0x50,
  0x6f, 0x6f, 0x6c, 0x3a, 0x30, 0x0a, 0x11, 0x43, 0x6f, 0x6e, 0x76, 0x32,
  0x44, 0x5f, 0x33, 0x2f, 0x66, 0x69, 0x6c, 0x74, 0x65, 0x72, 0x3a, 0x30,
  0x0a, 0x0e, 0x63, 0x6f, 0x6e, 0x76, 0x32, 0x64, 0x5f, 0x32, 0x5f, 0x31,
  0x2f, 0x79, 0x3a, 0x30, 0x12, 0x0b, 0x43, 0x6f, 0x6e, 0x76, 0x5f, 0x5f,
  0x32, 0x32, 0x38, 0x3a, 0x30, 0x1a, 0x09, 0x43, 0x6f, 0x6e, 0x76, 0x5f,
  0x5f, 0x32, 0x32, 0x38, 0x22, 0x04, 0x43, 0x6f, 0x6e, 0x76, 0x2a, 0x12,
  0x0a, 0x09, 0x64, 0x69, 0x6c, 0x61, 0x74, 0x69, 0x6f, 0x6e, 0x73, 0x40,
  0x01, 0x40, 0x01, 0xa0, 0x01, 0x07, 0x2a, 0x10, 0x0a, 0x07, 0x73, 0x74,
  0x72, 0x69, 0x64, 0x65, 0x73, 0x40, 0x01, 0x40, 0x01, 0xa0, 0x01, 0x07,
  0x2a, 0x15, 0x0a, 0x0c, 0x6b, 0x65, 0x72, 0x6e, 0x65, 0x6c, 0x5f, 0x73,
  0x68, 0x61, 0x70, 0x65, 0x40, 0x01, 0x40, 0x01, 0xa0, 0x01, 0x07, 0x3a,
  0x00, 0x0a, 0x27, 0x0a, 0x0b, 0x43, 0x6f, 0x6e, 0x76, 0x5f, 0x5f, 0x32,
  0x32, 0x38, 0x3a, 0x30, 0x12, 0x09, 0x72, 0x65, 0x5f, 0x6c, 0x75, 0x5f,
  0x32, 0x3a, 0x30, 0x1a, 0x07, 0x72, 0x65, 0x5f, 0x6c, 0x75, 0x5f, 0x32,
  0x22, 0x04, 0x52, 0x65, 0x6c, 0x75, 0x0a, 0x8b, 0x01, 0x0a, 0x09, 0x72,
  0x65, 0x5f, 0x6c, 0x75, 0x5f, 0x32, 0x3a, 0x30, 0x0a, 0x11, 0x43, 0x6f,
  0x6e, 0x76, 0x32, 0x44, 0x5f, 0x34, 0x2f, 0x66, 0x69, 0x6c, 0x74, 0x65,
  0x72, 0x3a, 0x30, 0x0a, 0x0e, 0x63, 0x6f, 0x6e, 0x76, 0x32, 0x64, 0x5f,
  0x33, 0x5f, 0x31, 0x2f, 0x79, 0x3a, 0x30, 0x12, 0x0b, 0x43, 0x6f, 0x6e,
  0x76, 0x5f, 0x5f, 0x32, 0x32, 0x39, 0x3a, 0x30, 0x1a, 0x09, 0x43, 0x6f,
  0x6e, 0x76, 0x5f, 0x5f, 0x32, 0x32, 0x39, 0x22, 0x04, 0x43, 0x6f, 0x6e,
  0x76, 0x2a, 0x12, 0x0a, 0x09, 0x64, 0x69, 0x6c, 0x61, 0x74, 0x69, 0x6f,
  0x6e, 0x73, 0x40, 0x01, 0x40, 0x01, 0xa0, 0x01, 0x07, 0x2a, 0x10, 0x0a,
  0x07, 0x73, 0x74, 0x72, 0x69, 0x64, 0x65, 0x73, 0x40, 0x01, 0x40, 0x01,
  0xa0, 0x01, 0x07, 0x2a, 0x15, 0x0a, 0x0c, 0x6b, 0x65, 0x72, 0x6e, 0x65,
  0x6c, 0x5f, 0x73, 0x68, 0x61, 0x70, 0x65, 0x40, 0x01, 0x40, 0x01, 0xa0,
  0x01, 0x07, 0x3a, 0x00, 0x0a, 0x30, 0x0a, 0x0b, 0x43, 0x6f, 0x6e, 0x76,
  0x5f, 0x5f, 0x32, 0x32, 0x39, 0x3a, 0x30, 0x12, 0x0c, 0x61, 0x63, 0x74,
  0x69, 0x76, 0x61, 0x74, 0x69, 0x6f, 0x6e, 0x3a, 0x30, 0x1a, 0x0a, 0x61,
  0x63, 0x74, 0x69, 0x76, 0x61, 0x74, 0x69, 0x6f, 0x6e, 0x22, 0x07, 0x53,
  0x69, 0x67, 0x6d, 0x6f, 0x69, 0x64, 0x0a, 0x34, 0x0a, 0x09, 0x72, 0x65,
  0x5f, 0x6c, 0x75, 0x5f, 0x31, 0x3a, 0x30, 0x0a, 0x0c, 0x61, 0x63, 0x74,
  0x69, 0x76, 0x61, 0x74, 0x69, 0x6f, 0x6e, 0x3a, 0x30, 0x12, 0x0a, 0x6d,
  0x75, 0x6c, 0x74, 0x69, 0x70, 0x6c, 0x79, 0x3a, 0x30, 0x1a, 0x08, 0x6d,
  0x75, 0x6c, 0x74, 0x69, 0x70, 0x6c, 0x79, 0x22, 0x03, 0x4d, 0x75, 0x6c,
  0x0a, 0x9f, 0x01, 0x0a, 0x0a, 0x6d, 0x75, 0x6c, 0x74, 0x69, 0x70, 0x6c,
  0x79, 0x3a, 0x30, 0x0a, 0x11, 0x43, 0x6f, 0x6e, 0x76, 0x32, 0x44, 0x5f,
  0x35, 0x2f, 0x66, 0x69, 0x6c, 0x74, 0x65, 0x72, 0x3a, 0x30, 0x0a, 0x0e,
  0x63, 0x6f, 0x6e, 0x76, 0x32, 0x64, 0x5f, 0x34, 0x5f, 0x31, 0x2f, 0x79,
  0x3a, 0x30, 0x12, 0x0b, 0x43, 0x6f, 0x6e, 0x76, 0x5f, 0x5f, 0x32, 0x33,
  0x30, 0x3a, 0x30, 0x1a, 0x09, 0x43, 0x6f, 0x6e, 0x76, 0x5f, 0x5f, 0x32,
  0x33, 0x30, 0x22, 0x04, 0x43, 0x6f, 0x6e, 0x76, 0x2a, 0x12, 0x0a, 0x09,
  0x64, 0x69, 0x6c, 0x61, 0x74, 0x69, 0x6f, 0x6e, 0x73, 0x40, 0x01, 0x40,
  0x01, 0xa0, 0x01, 0x07, 0x2a, 0x10, 0x0a, 0x07, 0x73, 0x74, 0x72, 0x69,
  0x64, 0x65, 0x73, 0x40, 0x01, 0x40, 0x01, 0xa0, 0x01, 0x07, 0x2a, 0x15,
  0x0a, 0x0c, 0x6b, 0x65, 0x72, 0x6e, 0x65, 0x6c, 0x5f, 0x73, 0x68, 0x61,
  0x70, 0x65, 0x40, 0x01, 0x40, 0x01, 0xa0, 0x01, 0x07, 0x2a, 0x11, 0x0a,
  0x04, 0x70, 0x61, 0x64, 0x73, 0x40, 0x00, 0x40, 0x00, 0x40, 0x00, 0x40,
  0x00, 0xa0, 0x01, 0x07, 0x3a, 0x00, 0x0a, 0xa0, 0x01, 0x0a, 0x0b, 0x43,
  0x6f, 0x6e, 0x76, 0x5f, 0x5f, 0x32, 0x33, 0x30, 0x3a, 0x30, 0x0a, 0x11,
  0x43, 0x6f, 0x6e, 0x76, 0x32, 0x44, 0x5f, 0x36, 0x2f, 0x66, 0x69, 0x6c,
  0x74, 0x65, 0x72, 0x3a, 0x30, 0x0a, 0x0e, 0x63, 0x6f, 0x6e, 0x76, 0x32,
  0x64, 0x5f, 0x35, 0x5f, 0x31, 0x2f, 0x79, 0x3a, 0x30, 0x12, 0x0b, 0x43,
  0x6f, 0x6e, 0x76, 0x5f, 0x5f, 0x32, 0x33, 0x34, 0x3a, 0x30, 0x1a, 0x09,
  0x43, 0x6f, 0x6e, 0x76, 0x5f, 0x5f, 0x32, 0x33, 0x34, 0x22, 0x04, 0x43,
  0x6f, 0x6e, 0x76, 0x2a, 0x12, 0x0a, 0x09, 0x64, 0x69, 0x6c, 0x61, 0x74,
  0x69, 0x6f, 0x6e, 0x73, 0x40, 0x01, 0x40, 0x01, 0xa0, 0x01, 0x07, 0x2a,
  0x10, 0x0a, 0x07, 0x73, 0x74, 0x72, 0x69, 0x64, 0x65, 0x73, 0x40, 0x01,
  0x40, 0x01, 0xa0, 0x01, 0x07, 0x2a, 0x15, 0x0a, 0x0c, 0x6b, 0x65, 0x72,
  0x6e, 0x65, 0x6c, 0x5f, 0x73, 0x68, 0x61, 0x70, 0x65, 0x40, 0x01, 0x40,
  0x01, 0xa0, 0x01, 0x07, 0x2a, 0x11, 0x0a, 0x04, 0x70, 0x61, 0x64, 0x73,
  0x40, 0x00, 0x40, 0x00, 0x40, 0x00, 0x40, 0x00, 0xa0, 0x01, 0x07, 0x3a,
  0x00, 0x0a, 0x27, 0x0a, 0x0b, 0x43, 0x6f, 0x6e, 0x76, 0x5f, 0x5f, 0x32,
  0x33, 0x34, 0x3a, 0x30, 0x12, 0x09, 0x72, 0x65, 0x5f, 0x6c, 0x75, 0x5f,
  0x33, 0x3a, 0x30, 0x1a, 0x07, 0x72, 0x65, 0x5f, 0x6c, 0x75, 0x5f, 0x33,
  0x22, 0x04, 0x52, 0x65, 0x6c, 0x75, 0x0a, 0xb6, 0x01, 0x0a, 0x09, 0x72,
  0x65, 0x5f, 0x6c, 0x75, 0x5f, 0x33, 0x3a, 0x30, 0x0a, 0x13, 0x63, 0x6f,
  0x6e, 0x73, 0x74, 0x5f, 0x66, 0x6f, 0x6c, 0x64, 0x5f, 0x6f, 0x70, 0x74,
  0x5f, 0x5f, 0x34, 0x37, 0x36, 0x0a, 0x16, 0x64, 0x65, 0x70, 0x74, 0x68,
  0x77, 0x69, 0x73, 0x65, 0x5f, 0x63, 0x6f, 0x6e, 0x76, 0x32, 0x64, 0x5f,
  0x31, 0x2f, 0x79, 0x3a, 0x30, 0x12, 0x0b, 0x43, 0x6f, 0x6e, 0x76, 0x5f,
  0x5f, 0x32, 0x33, 0x35, 0x3a, 0x30, 0x1a, 0x09, 0x43, 0x6f, 0x6e, 0x76,
  0x5f, 0x5f, 0x32, 0x33, 0x35, 0x22, 0x04, 0x43, 0x6f, 0x6e, 0x76, 0x2a,
  0x12, 0x0a, 0x09, 0x64, 0x69, 0x6c, 0x61, 0x74, 0x69, 0x6f, 0x6e, 0x73,
  0x40, 0x01, 0x40, 0x01, 0xa0, 0x01, 0x07, 0x2a, 0x10, 0x0a, 0x07, 0x73,
  0x74, 0x72, 0x69, 0x64, 0x65, 0x73, 0x40, 0x02, 0x40, 0x02, 0xa0, 0x01,
  0x07, 0x2a, 0x15, 0x0a, 0x0c, 0x6b, 0x65, 0x72, 0x6e, 0x65, 0x6c, 0x5f,
  0x73, 0x68, 0x61, 0x70, 0x65, 0x40, 0x03, 0x40, 0x03, 0xa0, 0x01, 0x07,
  0x2a, 0x0c, 0x0a, 0x05, 0x67, 0x72, 0x6f, 0x75, 0x70, 0x18, 0x48, 0xa0,
  0x01, 0x02, 0x2a, 0x11, 0x0a, 0x04, 0x70, 0x61, 0x64, 0x73, 0x40, 0x00,
  0x40, 0x00, 0x40, 0x01, 0x40, 0x01, 0xa0, 0x01, 0x07, 0x3a, 0x00, 0x0a,
  0x27, 0x0a, 0x0b, 0x43, 0x6f, 0x6e, 0x76, 0x5f, 0x5f, 0x32, 0x33, 0x35,
  0x3a, 0x30, 0x12, 0x09, 0x72, 0x65, 0x5f, 0x6c, 0x75, 0x5f, 0x34, 0x3a,
  0x30, 0x1a, 0x07, 0x72, 0x65, 0x5f, 0x6c, 0x75, 0x5f, 0x34, 0x22, 0x04,
  0x52, 0x65, 0x6c, 0x75, 0x0a, 0x9e, 0x01, 0x0a, 0x09, 0x72, 0x65, 0x5f,
  0x6c, 0x75, 0x5f, 0x34, 0x3a, 0x30, 0x0a, 0x11, 0x43, 0x6f, 0x6e, 0x76,
  0x32, 0x44, 0x5f, 0x37, 0x2f, 0x66, 0x69, 0x6c, 0x74, 0x65, 0x72, 0x3a,
  0x30, 0x0a, 0x0e, 0x63, 0x6f, 0x6e, 0x76, 0x32, 0x64, 0x5f, 0x36, 0x5f,
  0x31, 0x2f, 0x79, 0x3a, 0x30, 0x12, 0x0b, 0x43, 0x6f, 0x6e, 0x76, 0x5f,
  0x5f, 0x32, 0x33, 0x36, 0x3a, 0x30, 0x1a, 0x09, 0x43, 0x6f, 0x6e, 0x76,
  0x5f, 0x5f, 0x32, 0x33, 0x36, 0x22, 0x04, 0x43, 0x6f, 0x6e, 0x76, 0x2a,
  0x12, 0x0a, 0x09, 0x64, 0x69, 0x6c, 0x61, 0x74, 0x69, 0x6f, 0x6e, 0x73,
  0x40, 0x01, 0x40, 0x01, 0xa0, 0x01, 0x07, 0x2a, 0x10, 0x0a, 0x07, 0x73,
  0x74, 0x72, 0x69, 0x64, 0x65, 0x73, 0x40, 0x01, 0x40, 0x01, 0xa0, 0x01,
  0x07, 0x2a, 0x15, 0x0a, 0x0c, 0x6b, 0x65, 0x72, 0x6e, 0x65, 0x6c, 0x5f,
  0x73, 0x68, 0x61, 0x70, 0x65, 0x40, 0x01, 0x40, 0x01, 0xa0, 0x01, 0x07,
  0x2a, 0x11, 0x0a, 0x04, 0x70, 0x61, 0x64, 0x73, 0x40, 0x00, 0x40, 0x00,
  0x40, 0x00, 0x40, 0x00, 0xa0, 0x01, 0x07, 0x3a, 0x00, 0x0a, 0xa0, 0x01,
  0x0a, 0x0b, 0x43, 0x6f, 0x6e, 0x76, 0x5f, 0x5f, 0x32, 0x33, 0x36, 0x3a,
  0x30, 0x0a, 0x11, 0x43, 0x6f, 0x6e, 0x76, 0x32, 0x44, 0x5f, 0x38, 0x2f,
  0x66, 0x69, 0x6c, 0x74, 0x65, 0x72, 0x3a, 0x30, 0x0a, 0x0e, 0x63, 0x6f,
  0x6e, 0x76, 0x32, 0x64, 0x5f, 0x37, 0x5f, 0x31, 0x2f, 0x79, 0x3a, 0x30,
  0x12, 0x0b, 0x43, 0x6f, 0x6e, 0x76, 0x5f, 0x5f, 0x32, 0x33, 0x39, 0x3a,
  0x30, 0x1a, 0x09, 0x43, 0x6f, 0x6e, 0x76, 0x5f, 0x5f, 0x32, 0x33, 0x39,
  0x22, 0x04, 0x43, 0x6f, 0x6e, 0x76, 0x2a, 0x12, 0x0a, 0x09, 0x64, 0x69,
  0x6c, 0x61, 0x74, 0x69, 0x6f, 0x6e, 0x73, 0x40, 0x01, 0x40, 0x01, 0xa0,
  0x01, 0x07, 0x2a, 0x10, 0x0a, 0x07, 0x73, 0x74, 0x72, 0x69, 0x64, 0x65,
  0x73, 0x40, 0x01, 0x40, 0x01, 0xa0, 0x01, 0x07, 0x2a, 0x15, 0x0a, 0x0c,
  0x6b, 0x65, 0x72, 0x6e, 0x65, 0x6c, 0x5f, 0x73, 0x68, 0x61, 0x70, 0x65,
  0x40, 0x01, 0x40, 0x01, 0xa0, 0x01, 0x07, 0x2a, 0x11, 0x0a, 0x04, 0x70,
  0x61, 0x64, 0x73, 0x40, 0x00, 0x40, 0x00, 0x40, 0x00, 0x40, 0x00, 0xa0,
  0x01, 0x07, 0x3a, 0x00, 0x0a, 0x27, 0x0a, 0x0b, 0x43, 0x6f, 0x6e, 0x76,
  0x5f, 0x5f, 0x32, 0x33, 0x39, 0x3a, 0x30, 0x12, 0x09, 0x72, 0x65, 0x5f,
  0x6c, 0x75, 0x5f, 0x35, 0x3a, 0x30, 0x1a, 0x07, 0x72, 0x65, 0x5f, 0x6c,
  0x75, 0x5f, 0x35, 0x22, 0x04, 0x52, 0x65, 0x6c, 0x75, 0x0a, 0xb6, 0x01,
  0x0a, 0x09, 0x72, 0x65, 0x5f, 0x6c, 0x75, 0x5f, 0x35, 0x3a, 0x30, 0x0a,
  0x13, 0x63, 0x6f, 0x6e, 0x73, 0x74, 0x5f, 0x66, 0x6f, 0x6c, 0x64, 0x5f,
  0x6f, 0x70, 0x74, 0x5f, 0x5f, 0x34, 0x37, 0x35, 0x0a, 0x16, 0x64, 0x65,
  0x70, 0x74, 0x68, 0x77, 0x69, 0x73, 0x65, 0x5f, 0x63, 0x6f, 0x6e, 0x76,
  0x32, 0x64, 0x5f, 0x32, 0x2f, 0x79, 0x3a, 0x30, 0x12, 0x0b, 0x43, 0x6f,
  0x6e, 0x76, 0x5f, 0x5f, 0x32, 0x34, 0x30, 0x3a, 0x30, 0x1a, 0x09, 0x43,
  0x6f, 0x6e, 0x76, 0x5f, 0x5f, 0x32, 0x34, 0x30, 0x22, 0x04, 0x43, 0x6f,
  0x6e, 0x76, 0x2a, 0x12, 0x0a, 0x09, 0x64, 0x69, 0x6c, 0x61, 0x74, 0x69,
  0x6f, 0x6e, 0x73, 0x40, 0x01, 0x40, 0x01, 0xa0, 0x01, 0x07, 0x2a, 0x10,
  0x0a, 0x07, 0x73, 0x74, 0x72, 0x69, 0x64, 0x65, 0x73, 0x40, 0x01, 0x40,
  0x01, 0xa0, 0x01, 0x07, 0x2a, 0x15, 0x0a, 0x0c, 0x6b, 0x65, 0x72, 0x6e,
  0x65, 0x6c, 0x5f, 0x73, 0x68, 0x61, 0x70, 0x65, 0x40, 0x03, 0x40, 0x03,
  0xa0, 0x01, 0x07, 0x2a, 0x0c, 0x0a, 0x05, 0x67, 0x72, 0x6f, 0x75, 0x70,
  0x18, 0x58, 0xa0, 0x01, 0x02, 0x2a, 0x11, 0x0a, 0x04, 0x70, 0x61, 0x64,
  0x73, 0x40, 0x01, 0x40, 0x01, 0x40, 0x01, 0x40, 0x01, 0xa0, 0x01, 0x07,
  0x3a, 0x00, 0x0a, 0x27, 0x0a, 0x0b, 0x43, 0x6f, 0x6e, 0x76, 0x5f, 0x5f,
  0x32, 0x34, 0x30, 0x3a, 0x30, 0x12, 0x09, 0x72, 0x65, 0x5f, 0x6c, 0x75,
  0x5f, 0x36, 0x3a, 0x30, 0x1a, 0x07, 0x72, 0x65, 0x5f, 0x6c, 0x75, 0x5f,
  0x36, 0x22, 0x04, 0x52, 0x65, 0x6c, 0x75, 0x0a, 0x9e, 0x01, 0x0a, 0x09,
  0x72, 0x65, 0x5f, 0x6c, 0x75, 0x5f, 0x36, 0x3a, 0x30, 0x0a, 0x11, 0x43,
  0x6f, 0x6e, 0x76, 0x32, 0x44, 0x5f, 0x39, 0x2f, 0x66, 0x69, 0x6c, 0x74,
  0x65, 0x72, 0x3a, 0x30, 0x0a, 0x0e, 0x63, 0x6f, 0x6e, 0x76, 0x32, 0x64,
  0x5f, 0x38, 0x5f, 0x31, 0x2f, 0x79, 0x3a, 0x30, 0x12, 0x0b, 0x43, 0x6f,
  0x6e, 0x76, 0x5f, 0x5f, 0x32, 0x34, 0x31, 0x3a, 0x30, 0x1a, 0x09, 0x43,
  0x6f, 0x6e, 0x76, 0x5f, 0x5f, 0x32, 0x34, 0x31, 0x22, 0x04, 0x43, 0x6f,
  0x6e, 0x76, 0x2a, 0x12, 0x0a, 0x09, 0x64, 0x69, 0x6c, 0x61, 0x74, 0x69,
  0x6f, 0x6e, 0x73, 0x40, 0x01, 0x40, 0x01, 0xa0, 0x01, 0x07, 0x2a, 0x10,
  0x0a, 0x07, 0x73, 0x74, 0x72, 0x69, 0x64, 0x65, 0x73, 0x40, 0x01, 0x40,
  0x01, 0xa0, 0x01, 0x07, 0x2a, 0x15, 0x0a, 0x0c, 0x6b, 0x65, 0x72, 0x6e,
  0x65, 0x6c, 0x5f, 0x73, 0x68, 0x61, 0x70, 0x65, 0x40, 0x01, 0x40, 0x01,
  0xa0, 0x01, 0x07, 0x2a, 0x11, 0x0a, 0x04, 0x70, 0x61, 0x64, 0x73, 0x40,
  0x00, 0x40, 0x00, 0x40, 0x00, 0x40, 0x00, 0xa0, 0x01, 0x07, 0x3a, 0x00,
  0x0a, 0x4b, 0x0a, 0x0b, 0x43, 0x6f, 0x6e, 0x76, 0x5f, 0x5f, 0x32, 0x34,
  0x31, 0x3a, 0x30, 0x0a, 0x0b, 0x43, 0x6f, 0x6e, 0x76, 0x5f, 0x5f, 0x32,
  0x33, 0x36, 0x3a, 0x30, 0x12, 0x15, 0x61, 0x64, 0x64, 0x5f, 0x5f, 0x78,
  0x65, 0x6e, 0x6f, 0x5f, 0x63, 0x6f, 0x6d, 0x70, 0x61, 0x74, 0x5f, 0x5f,
  0x31, 0x3a, 0x30, 0x1a, 0x13, 0x61, 0x64, 0x64, 0x5f, 0x5f, 0x78, 0x65,
  0x6e, 0x6f, 0x5f, 0x63, 0x6f, 0x6d, 0x70, 0x61, 0x74, 0x5f, 0x5f, 0x31,
  0x22, 0x03, 0x41, 0x64, 0x64, 0x0a, 0xab, 0x01, 0x0a, 0x15, 0x61, 0x64,
  0x64, 0x5f, 0x5f, 0x78, 0x65, 0x6e, 0x6f, 0x5f, 0x63, 0x6f, 0x6d, 0x70,
  0x61, 0x74, 0x5f, 0x5f, 0x31, 0x3a, 0x30, 0x0a, 0x12, 0x43, 0x6f, 0x6e,
  0x76, 0x32, 0x44, 0x5f, 0x31, 0x30, 0x2f, 0x66, 0x69, 0x6c, 0x74, 0x65,
  0x72, 0x3a, 0x30, 0x0a, 0x0e, 0x63, 0x6f, 0x6e, 0x76, 0x32, 0x64, 0x5f,
  0x39, 0x5f, 0x31, 0x2f, 0x79, 0x3a, 0x30, 0x12, 0x0b, 0x43, 0x6f, 0x6e,
  0x76, 0x5f, 0x5f, 0x32, 0x34, 0x36, 0x3a, 0x30, 0x1a, 0x09, 0x43, 0x6f,
  0x6e, 0x76, 0x5f, 0x5f, 0x32, 0x34, 0x36, 0x22, 0x04, 0x43, 0x6f, 0x6e,
  0x76, 0x2a, 0x12, 0x0a, 0x09, 0x64, 0x69, 0x6c, 0x61, 0x74, 0x69, 0x6f,
  0x6e, 0x73, 0x40, 0x01, 0x40, 0x01, 0xa0, 0x01, 0x07, 0x2a, 0x10, 0x0a,
  0x07, 0x73, 0x74, 0x72, 0x69, 0x64, 0x65, 0x73, 0x40, 0x01, 0x40, 0x01,
  0xa0, 0x01, 0x07, 0x2a, 0x15, 0x0a, 0x0c, 0x6b, 0x65, 0x72, 0x6e, 0x65,
  0x6c, 0x5f, 0x73, 0x68, 0x61, 0x70, 0x65, 0x40, 0x01, 0x40, 0x01, 0xa0,
  0x01, 0x07, 0x2a, 0x11, 0x0a, 0x04, 0x70, 0x61, 0x64, 0x73, 0x40, 0x00,
  0x40, 0x00, 0x40, 0x00, 0x40, 0x00, 0xa0, 0x01, 0x07, 0x3a, 0x00, 0x0a,
  0x37, 0x0a, 0x0b, 0x43, 0x6f, 0x6e, 0x76, 0x5f, 0x5f, 0x32, 0x34, 0x36,
  0x3a, 0x30, 0x0a, 0x13, 0x63, 0x6f, 0x6e, 0x73, 0x74, 0x5f, 0x66, 0x6f,
  0x6c, 0x64, 0x5f, 0x6f, 0x70, 0x74, 0x5f, 0x5f, 0x34, 0x39, 0x31, 0x12,
  0x07, 0x61, 0x64, 0x64, 0x5f, 0x31, 0x3a, 0x30, 0x1a, 0x05, 0x61, 0x64,
  0x64, 0x5f, 0x31, 0x22, 0x03, 0x41, 0x64, 0x64, 0x0a, 0x47, 0x0a, 0x07,
  0x61, 0x64, 0x64, 0x5f, 0x31, 0x3a, 0x30, 0x0a, 0x10, 0x52, 0x65, 0x6c,
  0x75, 0x36, 0x5f, 0x38, 0x5f, 0x6d, 0x69, 0x6e, 0x5f, 0x5f, 0x31, 0x30,
  0x39, 0x0a, 0x10, 0x52, 0x65, 0x6c, 0x75, 0x36, 0x5f, 0x39, 0x5f, 0x6d,
  0x61, 0x78, 0x5f, 0x5f, 0x31, 0x32, 0x32, 0x12, 0x09, 0x52, 0x65, 0x6c,
  0x75, 0x36, 0x5f, 0x31, 0x3a, 0x30, 0x1a, 0x07, 0x52, 0x65, 0x6c, 0x75,
  0x36, 0x5f, 0x31, 0x22, 0x04, 0x43, 0x6c, 0x69, 0x70, 0x0a, 0x2c, 0x0a,
  0x0a, 0x6d, 0x75, 0x6c, 0x5f, 0x31, 0x33, 0x2f, 0x79, 0x3a, 0x30, 0x0a,
  0x09, 0x52, 0x65, 0x6c, 0x75, 0x36, 0x5f, 0x31, 0x3a, 0x30, 0x12, 0x07,
  0x6d, 0x75, 0x6c, 0x5f, 0x32, 0x3a, 0x30, 0x1a, 0x05, 0x6d, 0x75, 0x6c,
  0x5f, 0x32, 0x22, 0x03, 0x4d, 0x75, 0x6c, 0x0a, 0x2b, 0x0a, 0x0b, 0x43,
  0x6f, 0x6e, 0x76, 0x5f, 0x5f, 0x32, 0x34, 0x36, 0x3a, 0x30, 0x0a, 0x07,
  0x6d, 0x75, 0x6c, 0x5f, 0x32, 0x3a, 0x30, 0x12, 0x07, 0x6d, 0x75, 0x6c,
  0x5f, 0x33, 0x3a, 0x30, 0x1a, 0x05, 0x6d, 0x75, 0x6c, 0x5f, 0x33, 0x22,
  0x03, 0x4d, 0x75, 0x6c, 0x0a, 0xb4, 0x01, 0x0a, 0x07, 0x6d, 0x75, 0x6c,
  0x5f, 0x33, 0x3a, 0x30, 0x0a, 0x13, 0x63, 0x6f, 0x6e, 0x73, 0x74, 0x5f,
  0x66, 0x6f, 0x6c, 0x64, 0x5f, 0x6f, 0x70, 0x74, 0x5f, 0x5f, 0x34, 0x37,
  0x31, 0x0a, 0x16, 0x64, 0x65, 0x70, 0x74, 0x68, 0x77, 0x69, 0x73, 0x65,
  0x5f, 0x63, 0x6f, 0x6e, 0x76, 0x32, 0x64, 0x5f, 0x33, 0x2f, 0x79, 0x3a,
  0x30, 0x12, 0x0b, 0x43, 0x6f, 0x6e, 0x76, 0x5f, 0x5f, 0x32, 0x34, 0x39,
  0x3a, 0x30, 0x1a, 0x09, 0x43, 0x6f, 0x6e, 0x76, 0x5f, 0x5f, 0x32, 0x34,
  0x39, 0x22, 0x04, 0x43, 0x6f, 0x6e, 0x76, 0x2a, 0x12, 0x0a, 0x09, 0x64,
  0x69, 0x6c, 0x61, 0x74, 0x69, 0x6f, 0x6e, 0x73, 0x40, 0x01, 0x40, 0x01,
  0xa0, 0x01, 0x07, 0x2a, 0x10, 0x0a, 0x07, 0x73, 0x74, 0x72, 0x69, 0x64,
  0x65, 0x73, 0x40, 0x02, 0x40, 0x02, 0xa0, 0x01, 0x07, 0x2a, 0x15, 0x0a,
  0x0c, 0x6b, 0x65, 0x72, 0x6e, 0x65, 0x6c, 0x5f, 0x73, 0x68, 0x61, 0x70,
  0x65, 0x40, 0x05, 0x40, 0x05, 0xa0, 0x01, 0x07, 0x2a, 0x0c, 0x0a, 0x05,
  0x67, 0x72, 0x6f, 0x75, 0x70, 0x18, 0x60, 0xa0, 0x01, 0x02, 0x2a, 0x11,
  0x0a, 0x04, 0x70, 0x61, 0x64, 0x73, 0x40, 0x01, 0x40, 0x01, 0x40, 0x02,
  0x40, 0x02, 0xa0, 0x01, 0x07, 0x3a, 0x00, 0x0a, 0x37, 0x0a, 0x0b, 0x43,
  0x6f, 0x6e, 0x76, 0x5f, 0x5f, 0x32, 0x34, 0x39, 0x3a, 0x30, 0x0a, 0x13,
  0x63, 0x6f, 0x6e, 0x73, 0x74, 0x5f, 0x66, 0x6f, 0x6c, 0x64, 0x5f, 0x6f,
  0x70, 0x74, 0x5f, 0x5f, 0x34, 0x39, 0x31, 0x12, 0x07, 0x61, 0x64, 0x64,
  0x5f, 0x32, 0x3a, 0x30, 0x1a, 0x05, 0x61, 0x64, 0x64, 0x5f, 0x32, 0x22,
  0x03, 0x41, 0x64, 0x64, 0x0a, 0x47, 0x0a, 0x07, 0x61, 0x64, 0x64, 0x5f,
  0x32, 0x3a, 0x30, 0x0a, 0x10, 0x52, 0x65, 0x6c, 0x75, 0x36, 0x5f, 0x38,
  0x5f, 0x6d, 0x69, 0x6e, 0x5f, 0x5f, 0x31, 0x30, 0x39, 0x0a, 0x10, 0x52,
  0x65, 0x6c, 0x75, 0x36, 0x5f, 0x39, 0x5f, 0x6d, 0x61, 0x78, 0x5f, 0x5f,
  0x31, 0x32, 0x32, 0x12, 0x09, 0x52, 0x65, 0x6c, 0x75, 0x36, 0x5f, 0x32,
  0x3a, 0x30, 0x1a, 0x07, 0x52, 0x65, 0x6c, 0x75, 0x36, 0x5f, 0x32, 0x22,
  0x04, 0x43, 0x6c, 0x69, 0x70, 0x0a, 0x2c, 0x0a, 0x0a, 0x6d, 0x75, 0x6c,
  0x5f, 0x31, 0x33, 0x2f, 0x79, 0x3a, 0x30, 0x0a, 0x09, 0x52, 0x65, 0x6c,
  0x75, 0x36, 0x5f, 0x32, 0x3a, 0x30, 0x12, 0x07, 0x6d, 0x75, 0x6c, 0x5f,
  0x34, 0x3a, 0x30, 0x1a, 0x05, 0x6d, 0x75, 0x6c, 0x5f, 0x34, 0x22, 0x03,
  0x4d, 0x75, 0x6c, 0x0a, 0x2b, 0x0a, 0x0b, 0x43, 0x6f, 0x6e, 0x76, 0x5f,
  0x5f, 0x32, 0x34, 0x39, 0x3a, 0x30, 0x0a, 0x07, 0x6d, 0x75, 0x6c, 0x5f,
  0x34, 0x3a, 0x30, 0x12, 0x07, 0x6d, 0x75, 0x6c, 0x5f, 0x35, 0x3a, 0x30,
  0x1a, 0x05, 0x6d, 0x75, 0x6c, 0x5f, 0x35, 0x22, 0x03, 0x4d, 0x75, 0x6c,
  0x0a, 0x8b, 0x01, 0x0a, 0x07, 0x6d, 0x75, 0x6c, 0x5f, 0x35, 0x3a, 0x30,
  0x12, 0x25, 0x61, 0x76, 0x65, 0x72, 0x61, 0x67, 0x65, 0x5f, 0x70, 0x6f,
  0x6f, 0x6c, 0x69, 0x6e, 0x67, 0x32, 0x64, 0x5f, 0x31, 0x5f, 0x61, 0x76,
  0x67, 0x70, 0x6f, 0x6f, 0x6c, 0x2f, 0x41, 0x76, 0x67, 0x50, 0x6f, 0x6f,
  0x6c, 0x3a, 0x30, 0x1a, 0x23, 0x61, 0x76, 0x65, 0x72, 0x61, 0x67, 0x65,
  0x5f, 0x70, 0x6f, 0x6f, 0x6c, 0x69, 0x6e, 0x67, 0x32, 0x64, 0x5f, 0x31,
  0x5f, 0x61, 0x76, 0x67, 0x70, 0x6f, 0x6f, 0x6c, 0x2f, 0x41, 0x76, 0x67,
  0x50, 0x6f, 0x6f, 0x6c, 0x22, 0x0b, 0x41, 0x76, 0x65, 0x72, 0x61, 0x67,
  0x65, 0x50, 0x6f, 0x6f, 0x6c, 0x2a, 0x10, 0x0a, 0x07, 0x73, 0x74, 0x72,
  0x69, 0x64, 0x65, 0x73, 0x40, 0x10, 0x40, 0x10, 0xa0, 0x01, 0x07, 0x2a,
  0x15, 0x0a, 0x0c, 0x6b, 0x65, 0x72, 0x6e, 0x65, 0x6c, 0x5f, 0x73, 0x68,
  0x61, 0x70, 0x65, 0x40, 0x10, 0x40, 0x10, 0xa0, 0x01, 0x07, 0x0a, 0xa9,
  0x01, 0x0a, 0x25, 0x61, 0x76, 0x65, 0x72, 0x61, 0x67, 0x65, 0x5f, 0x70,
  0x6f, 0x6f, 0x6c, 0x69, 0x6e, 0x67, 0x32, 0x64, 0x5f, 0x31, 0x5f, 0x61,
  0x76, 0x67, 0x70, 0x6f, 0x6f, 0x6c, 0x2f, 0x41, 0x76, 0x67, 0x50, 0x6f,
  0x6f, 0x6c, 0x3a, 0x30, 0x0a, 0x12, 0x43, 0x6f, 0x6e, 0x76, 0x32, 0x44,
  0x5f, 0x31, 0x31, 0x2f, 0x66, 0x69, 0x6c, 0x74, 0x65, 0x72, 0x3a, 0x30,
  0x0a, 0x0f, 0x63, 0x6f, 0x6e, 0x76, 0x32, 0x64, 0x5f, 0x31, 0x30, 0x5f,
  0x31, 0x2f, 0x79, 0x3a, 0x30, 0x12, 0x0b, 0x43, 0x6f, 0x6e, 0x76, 0x5f,
  0x5f, 0x32, 0x35, 0x32, 0x3a, 0x30, 0x1a, 0x09, 0x43, 0x6f, 0x6e, 0x76,
  0x5f, 0x5f, 0x32, 0x35, 0x32, 0x22, 0x04, 0x43, 0x6f, 0x6e, 0x76, 0x2a,
  0x12, 0x0a, 0x09, 0x64, 0x69, 0x6c, 0x61, 0x74, 0x69, 0x6f, 0x6e, 0x73,
  0x40, 0x01, 0x40, 0x01, 0xa0, 0x01, 0x07, 0x2a, 0x10, 0x0a, 0x07, 0x73,
  0x74, 0x72, 0x69, 0x64, 0x65, 0x73, 0x40, 0x01, 0x40, 0x01, 0xa0, 0x01,
  0x07, 0x2a, 0x15, 0x0a, 0x0c, 0x6b, 0x65, 0x72, 0x6e, 0x65, 0x6c, 0x5f,
  0x73, 0x68, 0x61, 0x70, 0x65, 0x40, 0x01, 0x40, 0x01, 0xa0, 0x01, 0x07,
  0x3a, 0x00, 0x0a, 0x27, 0x0a, 0x0b, 0x43, 0x6f, 0x6e, 0x76, 0x5f, 0x5f,
  0x32, 0x35, 0x32, 0x3a, 0x30, 0x12, 0x09, 0x72, 0x65, 0x5f, 0x6c, 0x75,
  0x5f, 0x37, 0x3a, 0x30, 0x1a, 0x07, 0x72, 0x65, 0x5f, 0x6c, 0x75, 0x5f,
  0x37, 0x22, 0x04, 0x52, 0x65, 0x6c, 0x75, 0x0a, 0x8d, 0x01, 0x0a, 0x09,
  0x72, 0x65, 0x5f, 0x6c, 0x75, 0x5f, 0x37, 0x3a, 0x30, 0x0a, 0x12, 0x43,
  0x6f, 0x6e, 0x76, 0x32, 0x44, 0x5f, 0x31, 0x32, 0x2f, 0x66, 0x69, 0x6c,
  0x74, 0x65, 0x72, 0x3a, 0x30, 0x0a, 0x0f, 0x63, 0x6f, 0x6e, 0x76, 0x32,
  0x64, 0x5f, 0x31, 0x31, 0x5f, 0x31, 0x2f, 0x79, 0x3a, 0x30, 0x12, 0x0b,
  0x43, 0x6f, 0x6e, 0x76, 0x5f, 0x5f, 0x32, 0x35, 0x33, 0x3a, 0x30, 0x1a,
  0x09, 0x43, 0x6f, 0x6e, 0x76, 0x5f, 0x5f, 0x32, 0x35, 0x33, 0x22, 0x04,
  0x43, 0x6f, 0x6e, 0x76, 0x2a, 0x12, 0x0a, 0x09, 0x64, 0x69, 0x6c, 0x61,
  0x74, 0x69, 0x6f, 0x6e, 0x73, 0x40, 0x01, 0x40, 0x01, 0xa0, 0x01, 0x07,
  0x2a, 0x10, 0x0a, 0x07, 0x73, 0x74, 0x72, 0x69, 0x64, 0x65, 0x73, 0x40,
  0x01, 0x40, 0x01, 0xa0, 0x01, 0x07, 0x2a, 0x15, 0x0a, 0x0c, 0x6b, 0x65,
  0x72, 0x6e, 0x65, 0x6c, 0x5f, 0x73, 0x68, 0x61, 0x70, 0x65, 0x40, 0x01,
  0x40, 0x01, 0xa0, 0x01, 0x07, 0x3a, 0x00, 0x0a, 0x34, 0x0a, 0x0b, 0x43,
  0x6f, 0x6e, 0x76, 0x5f, 0x5f, 0x32, 0x35, 0x33, 0x3a, 0x30, 0x12, 0x0e,
  0x61, 0x63, 0x74, 0x69, 0x76, 0x61, 0x74, 0x69, 0x6f, 0x6e, 0x5f, 0x31,
  0x3a, 0x30, 0x1a, 0x0c, 0x61, 0x63, 0x74, 0x69, 0x76, 0x61, 0x74, 0x69,
  0x6f, 0x6e, 0x5f, 0x31, 0x22, 0x07, 0x53, 0x69, 0x67, 0x6d, 0x6f, 0x69,
  0x64, 0x0a, 0x38, 0x0a, 0x07, 0x6d, 0x75, 0x6c, 0x5f, 0x35, 0x3a, 0x30,
  0x0a, 0x0e, 0x61, 0x63, 0x74, 0x69, 0x76, 0x61, 0x74, 0x69, 0x6f, 0x6e,
  0x5f, 0x31, 0x3a, 0x30, 0x12, 0x0c, 0x6d, 0x75, 0x6c, 0x74, 0x69, 0x70,
  0x6c, 0x79, 0x5f, 0x31, 0x3a, 0x30, 0x1a, 0x0a, 0x6d, 0x75, 0x6c, 0x74,
  0x69, 0x70, 0x6c, 0x79, 0x5f, 0x31, 0x22, 0x03, 0x4d, 0x75, 0x6c, 0x0a,
  0xa3, 0x01, 0x0a, 0x0c, 0x6d, 0x75, 0x6c, 0x74, 0x69, 0x70, 0x6c, 0x79,
  0x5f, 0x31, 0x3a, 0x30, 0x0a, 0x12, 0x43, 0x6f, 0x6e, 0x76, 0x32, 0x44,
  0x5f, 0x31, 0x33, 0x2f, 0x66, 0x69, 0x6c, 0x74, 0x65, 0x72, 0x3a, 0x30,
  0x0a, 0x0f, 0x63, 0x6f, 0x6e, 0x76, 0x32, 0x64, 0x5f, 0x31, 0x32, 0x5f,
  0x31, 0x2f, 0x79, 0x3a, 0x30, 0x12, 0x0b, 0x43, 0x6f, 0x6e, 0x76, 0x5f,
  0x5f, 0x32, 0x35, 0x34, 0x3a, 0x30, 0x1a, 0x09, 0x43, 0x6f, 0x6e, 0x76,
  0x5f, 0x5f, 0x32, 0x35, 0x34, 0x22, 0x04, 0x43, 0x6f, 0x6e, 0x76, 0x2a,
  0x12, 0x0a, 0x09, 0x64, 0x69, 0x6c, 0x61, 0x74, 0x69, 0x6f, 0x6e, 0x73,
  0x40, 0x01, 0x40, 0x01, 0xa0, 0x01, 0x07, 0x2a, 0x10, 0x0a, 0x07, 0x73,
  0x74, 0x72, 0x69, 0x64, 0x65, 0x73, 0x40, 0x01, 0x40, 0x01, 0xa0, 0x01,
  0x07, 0x2a, 0x15, 0x0a, 0x0c, 0x6b, 0x65, 0x72, 0x6e, 0x65, 0x6c, 0x5f,
  0x73, 0x68, 0x61, 0x70, 0x65, 0x40, 0x01, 0x40, 0x01, 0xa0, 0x01, 0x07,
  0x2a, 0x11, 0x0a, 0x04, 0x70, 0x61, 0x64, 0x73, 0x40, 0x00, 0x40, 0x00,
  0x40, 0x00, 0x40, 0x00, 0xa0, 0x01, 0x07, 0x3a, 0x00, 0x0a, 0xa2, 0x01,
  0x0a, 0x0b, 0x43, 0x6f, 0x6e, 0x76, 0x5f, 0x5f, 0x32, 0x35, 0x34, 0x3a,
  0x30, 0x0a, 0x12, 0x43, 0x6f, 0x6e, 0x76, 0x32, 0x44, 0x5f, 0x31, 0x34,
  0x2f, 0x66, 0x69, 0x6c, 0x74, 0x65, 0x72, 0x3a, 0x30, 0x0a, 0x0f, 0x63,
  0x6f, 0x6e, 0x76, 0x32, 0x64, 0x5f, 0x31, 0x33, 0x5f, 0x31, 0x2f, 0x79,
  0x3a, 0x30, 0x12, 0x0b, 0x43, 0x6f, 0x6e, 0x76, 0x5f, 0x5f, 0x32, 0x35,
  0x37, 0x3a, 0x30, 0x1a, 0x09, 0x43, 0x6f, 0x6e, 0x76, 0x5f, 0x5f, 0x32,
  0x35, 0x37, 0x22, 0x04, 0x43, 0x6f, 0x6e, 0x76, 0x2a, 0x12, 0x0a, 0x09,
  0x64, 0x69, 0x6c, 0x61, 0x74, 0x69, 0x6f, 0x6e, 0x73, 0x40, 0x01, 0x40,
  0x01, 0xa0, 0x01, 0x07, 0x2a, 0x10, 0x0a, 0x07, 0x73, 0x74, 0x72, 0x69,
  0x64, 0x65, 0x73, 0x40, 0x01, 0x40, 0x01, 0xa0, 0x01, 0x07, 0x2a, 0x15,
  0x0a, 0x0c, 0x6b, 0x65, 0x72, 0x6e, 0x65, 0x6c, 0x5f, 0x73, 0x68, 0x61,
  0x70, 0x65, 0x40, 0x01, 0x40, 0x01, 0xa0, 0x01, 0x07, 0x2a, 0x11, 0x0a,
  0x04, 0x70, 0x61, 0x64, 0x73, 0x40, 0x00, 0x40, 0x00, 0x40, 0x00, 0x40,
  0x00, 0xa0, 0x01, 0x07, 0x3a, 0x00, 0x0a, 0x37, 0x0a, 0x0b, 0x43, 0x6f,
  0x6e, 0x76, 0x5f, 0x5f, 0x32, 0x35, 0x37, 0x3a, 0x30, 0x0a, 0x13, 0x63,
  0x6f, 0x6e, 0x73, 0x74, 0x5f, 0x66, 0x6f, 0x6c, 0x64, 0x5f, 0x6f, 0x70,
  0x74, 0x5f, 0x5f, 0x34, 0x39, 0x31, 0x12, 0x07, 0x61, 0x64, 0x64, 0x5f,
  0x33, 0x3a, 0x30, 0x1a, 0x05, 0x61, 0x64, 0x64, 0x5f, 0x33, 0x22, 0x03,
  0x41, 0x64, 0x64, 0x0a, 0x47, 0x0a, 0x07, 0x61, 0x64, 0x64, 0x5f, 0x33,
  0x3a, 0x30, 0x0a, 0x10, 0x52, 0x65, 0x6c, 0x75, 0x36, 0x5f, 0x38, 0x5f,
  0x6d, 0x69, 0x6e, 0x5f, 0x5f, 0x31, 0x30, 0x39, 0x0a, 0x10, 0x52, 0x65,
  0x6c, 0x75, 0x36, 0x5f, 0x39, 0x5f, 0x6d, 0x61, 0x78, 0x5f, 0x5f, 0x31,
  0x32, 0x32, 0x12, 0x09, 0x52, 0x65, 0x6c, 0x75, 0x36, 0x5f, 0x33, 0x3a,
  0x30, 0x1a, 0x07, 0x52, 0x65, 0x6c, 0x75, 0x36, 0x5f, 0x33, 0x22, 0x04,
  0x43, 0x6c, 0x69, 0x70, 0x0a, 0x2c, 0x0a, 0x0a, 0x6d, 0x75, 0x6c, 0x5f,
  0x31, 0x33, 0x2f, 0x79, 0x3a, 0x30, 0x0a, 0x09, 0x52, 0x65, 0x6c, 0x75,
  0x36, 0x5f, 0x33, 0x3a, 0x30, 0x12, 0x07, 0x6d, 0x75, 0x6c, 0x5f, 0x36,
  0x3a, 0x30, 0x1a, 0x05, 0x6d, 0x75, 0x6c, 0x5f, 0x36, 0x22, 0x03, 0x4d,
  0x75, 0x6c, 0x0a, 0x2b, 0x0a, 0x0b, 0x43, 0x6f, 0x6e, 0x76, 0x5f, 0x5f,
  0x32, 0x35, 0x37, 0x3a, 0x30, 0x0a, 0x07, 0x6d, 0x75, 0x6c, 0x5f, 0x36,
  0x3a, 0x30, 0x12, 0x07, 0x6d, 0x75, 0x6c, 0x5f, 0x37, 0x3a, 0x30, 0x1a,
  0x05, 0x6d, 0x75, 0x6c, 0x5f, 0x37, 0x22, 0x03, 0x4d, 0x75, 0x6c, 0x0a,
  0xb5, 0x01, 0x0a, 0x07, 0x6d, 0x75, 0x6c, 0x5f, 0x37, 0x3a, 0x30, 0x0a,
  0x13, 0x63, 0x6f, 0x6e, 0x73, 0x74, 0x5f, 0x66, 0x6f, 0x6c, 0x64, 0x5f,
  0x6f, 0x70, 0x74, 0x5f, 0x5f, 0x34, 0x36, 0x38, 0x0a, 0x16, 0x64, 0x65,
  0x70, 0x74, 0x68, 0x77, 0x69, 0x73, 0x65, 0x5f, 0x63, 0x6f, 0x6e, 0x76,
  0x32, 0x64, 0x5f, 0x34, 0x2f, 0x79, 0x3a, 0x30, 0x12, 0x0b, 0x43, 0x6f,
  0x6e, 0x76, 0x5f, 0x5f, 0x32, 0x36, 0x30, 0x3a, 0x30, 0x1a, 0x09, 0x43,
  0x6f, 0x6e, 0x76, 0x5f, 0x5f, 0x32, 0x36, 0x30, 0x22, 0x04, 0x43, 0x6f,
  0x6e, 0x76, 0x2a, 0x12, 0x0a, 0x09, 0x64, 0x69, 0x6c, 0x61, 0x74, 0x69,
  0x6f, 0x6e, 0x73, 0x40, 0x01, 0x40, 0x01, 0xa0, 0x01, 0x07, 0x2a, 0x10,
  0x0a, 0x07, 0x73, 0x74, 0x72, 0x69, 0x64, 0x65, 0x73, 0x40, 0x01, 0x40,
  0x01, 0xa0, 0x01, 0x07, 0x2a, 0x15, 0x0a, 0x0c, 0x6b, 0x65, 0x72, 0x6e,
  0x65, 0x6c, 0x5f, 0x73, 0x68, 0x61, 0x70, 0x65, 0x40, 0x05, 0x40, 0x05,
  0xa0, 0x01, 0x07, 0x2a, 0x0d, 0x0a, 0x05, 0x67, 0x72, 0x6f, 0x75, 0x70,
  0x18, 0x80, 0x01, 0xa0, 0x01, 0x02, 0x2a, 0x11, 0x0a, 0x04, 0x70, 0x61,
  0x64, 0x73, 0x40, 0x02, 0x40, 0x02, 0x40, 0x02, 0x40, 0x02, 0xa0, 0x01,
  0x07, 0x3a, 0x00, 0x0a, 0x37, 0x0a, 0x0b, 0x43, 0x6f, 0x6e, 0x76, 0x5f,
  0x5f, 0x32, 0x36, 0x30, 0x3a, 0x30, 0x0a, 0x13, 0x63, 0x6f, 0x6e, 0x73,
  0x74, 0x5f, 0x66, 0x6f, 0x6c, 0x64, 0x5f, 0x6f, 0x70, 0x74, 0x5f, 0x5f,
  0x34, 0x39, 0x31, 0x12, 0x07, 0x61, 0x64, 0x64, 0x5f, 0x34, 0x3a, 0x30,
  0x1a, 0x05, 0x61, 0x64, 0x64, 0x5f, 0x34, 0x22, 0x03, 0x41, 0x64, 0x64,
  0x0a, 0x47, 0x0a, 0x07, 0x61, 0x64, 0x64, 0x5f, 0x34, 0x3a, 0x30, 0x0a,
  0x10, 0x52, 0x65, 0x6c, 0x75, 0x36, 0x5f, 0x38, 0x5f, 0x6d, 0x69, 0x6e,
  0x5f, 0x5f, 0x31, 0x30, 0x39, 0x0a, 0x10, 0x52, 0x65, 0x6c, 0x75, 0x36,
  0x5f, 0x39, 0x5f, 0x6d, 0x61, 0x78, 0x5f, 0x5f, 0x31, 0x32, 0x32, 0x12,
  0x09, 0x52, 0x65, 0x6c, 0x75, 0x36, 0x5f, 0x34, 0x3a, 0x30, 0x1a, 0x07,
  0x52, 0x65, 0x6c, 0x75, 0x36, 0x5f, 0x34, 0x22, 0x04, 0x43, 0x6c, 0x69,
  0x70, 0x0a, 0x2c, 0x0a, 0x0a, 0x6d, 0x75, 0x6c, 0x5f, 0x31, 0x33, 0x2f,
  0x79, 0x3a, 0x30, 0x0a, 0x09, 0x52, 0x65, 0x6c, 0x75, 0x36, 0x5f, 0x34,
  0x3a, 0x30, 0x12, 0x07, 0x6d, 0x75, 0x6c, 0x5f, 0x38, 0x3a, 0x30, 0x1a,
  0x05, 0x6d, 0x75, 0x6c, 0x5f, 0x38, 0x22, 0x03, 0x4d, 0x75, 0x6c, 0x0a,
  0x2b, 0x0a, 0x0b, 0x43, 0x6f, 0x6e, 0x76, 0x5f, 0x5f, 0x32, 0x36, 0x30,
  0x3a, 0x30, 0x0a, 0x07, 0x6d, 0x75, 0x6c, 0x5f, 0x38, 0x3a, 0x30, 0x12,
  0x07, 0x6d, 0x75, 0x6c, 0x5f, 0x39, 0x3a, 0x30, 0x1a, 0x05, 0x6d, 0x75,
  0x6c, 0x5f, 0x39, 0x22, 0x03, 0x4d, 0x75, 0x6c, 0x0a, 0x8b, 0x01, 0x0a,
  0x07, 0x6d, 0x75, 0x6c, 0x5f, 0x39, 0x3a, 0x30, 0x12, 0x25, 0x61, 0x76,
  0x65, 0x72, 0x61, 0x67, 0x65, 0x5f, 0x70, 0x6f, 0x6f, 0x6c, 0x69, 0x6e,
  0x67, 0x32, 0x64, 0x5f, 0x32, 0x5f, 0x61, 0x76, 0x67, 0x70, 0x6f, 0x6f,
  0x6c, 0x2f, 0x41, 0x76, 0x67, 0x50, 0x6f, 0x6f, 0x6c, 0x3a, 0x30, 0x1a,
  0x23, 0x61, 0x76, 0x65, 0x72, 0x61, 0x67, 0x65, 0x5f, 0x70, 0x6f, 0x6f,
  0x6c, 0x69, 0x6e, 0x67, 0x32, 0x64, 0x5f, 0x32, 0x5f, 0x61, 0x76, 0x67,
  0x70, 0x6f, 0x6f, 0x6c, 0x2f, 0x41, 0x76, 0x67, 0x50, 0x6f, 0x6f, 0x6c,
  0x22, 0x0b, 0x41, 0x76, 0x65, 0x72, 0x61, 0x67, 0x65, 0x50, 0x6f, 0x6f,
  0x6c, 0x2a, 0x10, 0x0a, 0x07, 0x73, 0x74, 0x72, 0x69, 0x64, 0x65, 0x73,
  0x40, 0x10, 0x40, 0x10, 0xa0, 0x01, 0x07, 0x2a, 0x15, 0x0a, 0x0c, 0x6b,
  0x65, 0x72, 0x6e, 0x65, 0x6c, 0x5f, 0x73, 0x68, 0x61, 0x70, 0x65, 0x40,
  0x10, 0x40, 0x10, 0xa0, 0x01, 0x07, 0x0a, 0xa9, 0x01, 0x0a, 0x25, 0x61,
  0x76, 0x65, 0x72, 0x61, 0x67, 0x65, 0x5f, 0x70, 0x6f, 0x6f, 0x6c, 0x69,
  0x6e, 0x67, 0x32, 0x64, 0x5f, 0x32, 0x5f, 0x61, 0x76, 0x67, 0x70, 0x6f,
  0x6f, 0x6c, 0x2f, 0x41, 0x76, 0x67, 0x50, 0x6f, 0x6f, 0x6c, 0x3a, 0x30,
  0x0a, 0x12, 0x43, 0x6f, 0x6e, 0x76, 0x32, 0x44, 0x5f, 0x31, 0x35, 0x2f,
  0x66, 0x69, 0x6c, 0x74, 0x65, 0x72, 0x3a, 0x30, 0x0a, 0x0f, 0x63, 0x6f,
  0x6e, 0x76, 0x32, 0x64, 0x5f, 0x31, 0x34, 0x5f, 0x31, 0x2f, 0x79, 0x3a,
  0x30, 0x12, 0x0b, 0x43, 0x6f, 0x6e, 0x76, 0x5f, 0x5f, 0x32, 0x36, 0x33,
  0x3a, 0x30, 0x1a, 0x09, 0x43, 0x6f, 0x6e, 0x76, 0x5f, 0x5f, 0x32, 0x36,
  0x33, 0x22, 0x04, 0x43, 0x6f, 0x6e, 0x76, 0x2a, 0x12, 0x0a, 0x09, 0x64,
  0x69, 0x6c, 0x61, 0x74, 0x69, 0x6f, 0x6e, 0x73, 0x40, 0x01, 0x40, 0x01,
  0xa0, 0x01, 0x07, 0x2a, 0x10, 0x0a, 0x07, 0x73, 0x74, 0x72, 0x69, 0x64,
  0x65, 0x73, 0x40, 0x01, 0x40, 0x01, 0xa0, 0x01, 0x07, 0x2a, 0x15, 0x0a,
  0x0c, 0x6b, 0x65, 0x72, 0x6e, 0x65, 0x6c, 0x5f, 0x73, 0x68, 0x61, 0x70,
  0x65, 0x40, 0x01, 0x40, 0x01, 0xa0, 0x01, 0x07, 0x3a, 0x00, 0x0a, 0x27,
  0x0a, 0x0b, 0x43, 0x6f, 0x6e, 0x76, 0x5f, 0x5f, 0x32, 0x36, 0x33, 0x3a,
  0x30, 0x12, 0x09, 0x72, 0x65, 0x5f, 0x6c, 0x75, 0x5f, 0x38, 0x3a, 0x30,
  0x1a, 0x07, 0x72, 0x65, 0x5f, 0x6c, 0x75, 0x5f, 0x38, 0x22, 0x04, 0x52,
  0x65, 0x6c, 0x75, 0x0a, 0x8d, 0x01, 0x0a, 0x09, 0x72, 0x65, 0x5f, 0x6c,
  0x75, 0x5f, 0x38, 0x3a, 0x30, 0x0a, 0x12, 0x43, 0x6f, 0x6e, 0x76, 0x32,
  0x44, 0x5f, 0x31, 0x36, 0x2f, 0x66, 0x69, 0x6c, 0x74, 0x65, 0x72, 0x3a,
  0x30, 0x0a, 0x0f, 0x63, 0x6f, 0x6e, 0x76, 0x32, 0x64, 0x5f, 0x31, 0x35,
  0x5f, 0x31, 0x2f, 0x79, 0x3a, 0x30, 0x12, 0x0b, 0x43, 0x6f, 0x6e, 0x76,
  0x5f, 0x5f, 0x32, 0x36, 0x34, 0x3a, 0x30, 0x1a, 0x09, 0x43, 0x6f, 0x6e,
  0x76, 0x5f, 0x5f, 0x32, 0x36, 0x34, 0x22, 0x04, 0x43, 0x6f, 0x6e, 0x76,
  0x2a, 0x12, 0x0a, 0x09, 0x64, 0x69, 0x6c, 0x61, 0x74, 0x69, 0x6f, 0x6e,
  0x73, 0x40, 0x01, 0x40, 0x01, 0xa0, 0x01, 0x07, 0x2a, 0x10, 0x0a, 0x07,
  0x73, 0x74, 0x72, 0x69, 0x64, 0x65, 0x73, 0x40, 0x01, 0x40, 0x01, 0xa0,
  0x01, 0x07, 0x2a, 0x15, 0x0a, 0x0c, 0x6b, 0x65, 0x72, 0x6e, 0x65, 0x6c,
  0x5f, 0x73, 0x68, 0x61, 0x70, 0x65, 0x40, 0x01, 0x40, 0x01, 0xa0, 0x01,
  0x07, 0x3a, 0x00, 0x0a, 0x34, 0x0a, 0x0b, 0x43, 0x6f, 0x6e, 0x76, 0x5f,
  0x5f, 0x32, 0x36, 0x34, 0x3a, 0x30, 0x12, 0x0e, 0x61, 0x63, 0x74, 0x69,
  0x76, 0x61, 0x74, 0x69, 0x6f, 0x6e, 0x5f, 0x32, 0x3a, 0x30, 0x1a, 0x0c,
  0x61, 0x63, 0x74, 0x69, 0x76, 0x61, 0x74, 0x69, 0x6f, 0x6e, 0x5f, 0x32,
  0x22, 0x07, 0x53, 0x69, 0x67, 0x6d, 0x6f, 0x69, 0x64, 0x0a, 0x38, 0x0a,
  0x07, 0x6d, 0x75, 0x6c, 0x5f, 0x39, 0x3a, 0x30, 0x0a, 0x0e, 0x61, 0x63,
  0x74, 0x69, 0x76, 0x61, 0x74, 0x69, 0x6f, 0x6e, 0x5f, 0x32, 0x3a, 0x30,
  0x12, 0x0c, 0x6d, 0x75, 0x6c, 0x74, 0x69, 0x70, 0x6c, 0x79, 0x5f, 0x32,
  0x3a, 0x30, 0x1a, 0x0a, 0x6d, 0x75, 0x6c, 0x74, 0x69, 0x70, 0x6c, 0x79,
  0x5f, 0x32, 0x22, 0x03, 0x4d, 0x75, 0x6c, 0x0a, 0xa3, 0x01, 0x0a, 0x0c,
  0x6d, 0x75, 0x6c, 0x74, 0x69, 0x70, 0x6c, 0x79, 0x5f, 0x32, 0x3a, 0x30,
  0x0a, 0x12, 0x43, 0x6f, 0x6e, 0x76, 0x32, 0x44, 0x5f, 0x31, 0x37, 0x2f,
  0x66, 0x69, 0x6c, 0x74, 0x65, 0x72, 0x3a, 0x30, 0x0a, 0x0f, 0x63, 0x6f,
  0x6e, 0x76, 0x32, 0x64, 0x5f, 0x31, 0x36, 0x5f, 0x31, 0x2f, 0x79, 0x3a,
  0x30, 0x12, 0x0b, 0x43, 0x6f, 0x6e, 0x76, 0x5f, 0x5f, 0x32, 0x36, 0x35,
  0x3a, 0x30, 0x1a, 0x09, 0x43, 0x6f, 0x6e, 0x76, 0x5f, 0x5f, 0x32, 0x36,
  0x35, 0x22, 0x04, 0x43, 0x6f, 0x6e, 0x76, 0x2a, 0x12, 0x0a, 0x09, 0x64,
  0x69, 0x6c, 0x61, 0x74, 0x69, 0x6f, 0x6e, 0x73, 0x40, 0x01, 0x40, 0x01,
  0xa0, 0x01, 0x07, 0x2a, 0x10, 0x0a, 0x07, 0x73, 0x74, 0x72, 0x69, 0x64,
  0x65, 0x73, 0x40, 0x01, 0x40, 0x01, 0xa0, 0x01, 0x07, 0x2a, 0x15, 0x0a,
  0x0c, 0x6b, 0x65, 0x72, 0x6e, 0x65, 0x6c, 0x5f, 0x73, 0x68, 0x61, 0x70,
  0x65, 0x40, 0x01, 0x40, 0x01, 0xa0, 0x01, 0x07, 0x2a, 0x11, 0x0a, 0x04,
  0x70, 0x61, 0x64, 0x73, 0x40, 0x00, 0x40, 0x00, 0x40, 0x00, 0x40, 0x00,
  0xa0, 0x01, 0x07, 0x3a, 0x00, 0x0a, 0x4f, 0x0a, 0x0b, 0x43, 0x6f, 0x6e,
  0x76, 0x5f, 0x5f, 0x32, 0x36, 0x35, 0x3a, 0x30, 0x0a, 0x0b, 0x43, 0x6f,
  0x6e, 0x76, 0x5f, 0x5f, 0x32, 0x35, 0x34, 0x3a, 0x30, 0x12, 0x17, 0x61,
  0x64, 0x64, 0x5f, 0x31, 0x5f, 0x5f, 0x78, 0x65, 0x6e, 0x6f, 0x5f, 0x63,
  0x6f, 0x6d, 0x70, 0x61, 0x74, 0x5f, 0x5f, 0x31, 0x3a, 0x30, 0x1a, 0x15,
  0x61, 0x64, 0x64, 0x5f, 0x31, 0x5f, 0x5f, 0x78, 0x65, 0x6e, 0x6f, 0x5f,
  0x63, 0x6f, 0x6d, 0x70, 0x61, 0x74, 0x5f, 0x5f, 0x31, 0x22, 0x03, 0x41,
  0x64, 0x64, 0x0a, 0xae, 0x01, 0x0a, 0x17, 0x61, 0x64, 0x64, 0x5f, 0x31,
  0x5f, 0x5f, 0x78, 0x65, 0x6e, 0x6f, 0x5f, 0x63, 0x6f, 0x6d, 0x70, 0x61,
  0x74, 0x5f, 0x5f, 0x31, 0x3a, 0x30, 0x0a, 0x12, 0x43, 0x6f, 0x6e, 0x76,
  0x32, 0x44, 0x5f, 0x31, 0x38, 0x2f, 0x66, 0x69, 0x6c, 0x74, 0x65, 0x72,
  0x3a, 0x30, 0x0a, 0x0f, 0x63, 0x6f, 0x6e, 0x76, 0x32, 0x64, 0x5f, 0x31,
  0x37, 0x5f, 0x31, 0x2f, 0x79, 0x3a, 0x30, 0x12, 0x0b, 0x43, 0x6f, 0x6e,
  0x76, 0x5f, 0x5f, 0x32, 0x36, 0x38, 0x3a, 0x30, 0x1a, 0x09, 0x43, 0x6f,
  0x6e, 0x76, 0x5f, 0x5f, 0x32, 0x36, 0x38, 0x22, 0x04, 0x43, 0x6f, 0x6e,
  0x76, 0x2a, 0x12, 0x0a, 0x09, 0x64, 0x69, 0x6c, 0x61, 0x74, 0x69, 0x6f,
  0x6e, 0x73, 0x40, 0x01, 0x40, 0x01, 0xa0, 0x01, 0x07, 0x2a, 0x10, 0x0a,
  0x07, 0x73, 0x74, 0x72, 0x69, 0x64, 0x65, 0x73, 0x40, 0x01, 0x40, 0x01,
  0xa0, 0x01, 0x07, 0x2a, 0x15, 0x0a, 0x0c, 0x6b, 0x65, 0x72, 0x6e, 0x65,
  0x6c, 0x5f, 0x73, 0x68, 0x61, 0x70, 0x65, 0x40, 0x01, 0x40, 0x01, 0xa0,
  0x01, 0x07, 0x2a, 0x11, 0x0a, 0x04, 0x70, 0x61, 0x64, 0x73, 0x40, 0x00,
  0x40, 0x00, 0x40, 0x00, 0x40, 0x00, 0xa0, 0x01, 0x07, 0x3a, 0x00, 0x0a,
  0x37, 0x0a, 0x0b, 0x43, 0x6f, 0x6e, 0x76, 0x5f, 0x5f, 0x32, 0x36, 0x38,
  0x3a, 0x30, 0x0a, 0x13, 0x63, 0x6f, 0x6e, 0x73, 0x74, 0x5f, 0x66, 0x6f,
  0x6c, 0x64, 0x5f, 0x6f, 0x70, 0x74, 0x5f, 0x5f, 0x34, 0x39, 0x31, 0x12,
  0x07, 0x61, 0x64, 0x64, 0x5f, 0x35, 0x3a, 0x30, 0x1a, 0x05, 0x61, 0x64,
  0x64, 0x5f, 0x35, 0x22, 0x03, 0x41, 0x64, 0x64, 0x0a, 0x47, 0x0a, 0x07,
  0x61, 0x64, 0x64, 0x5f, 0x35, 0x3a, 0x30, 0x0a, 0x10, 0x52, 0x65, 0x6c,
  0x75, 0x36, 0x5f, 0x38, 0x5f, 0x6d, 0x69, 0x6e, 0x5f, 0x5f, 0x31, 0x30,
  0x39, 0x0a, 0x10, 0x52, 0x65, 0x6c, 0x75, 0x36, 0x5f, 0x39, 0x5f, 0x6d,
  0x61, 0x78, 0x5f, 0x5f, 0x31, 0x32, 0x32, 0x12, 0x09, 0x52, 0x65, 0x6c,
  0x75, 0x36, 0x5f, 0x35, 0x3a, 0x30, 0x1a, 0x07, 0x52, 0x65, 0x6c, 0x75,
  0x36, 0x5f, 0x35, 0x22, 0x04, 0x43, 0x6c, 0x69, 0x70, 0x0a, 0x2e, 0x0a,
  0x0a, 0x6d, 0x75, 0x6c, 0x5f, 0x31, 0x33, 0x2f, 0x79, 0x3a, 0x30, 0x0a,
  0x09, 0x52, 0x65, 0x6c, 0x75, 0x36, 0x5f, 0x35, 0x3a, 0x30, 0x12, 0x08,
  0x6d, 0x75, 0x6c, 0x5f, 0x31, 0x30, 0x3a, 0x30, 0x1a, 0x06, 0x6d, 0x75,
  0x6c, 0x5f, 0x31, 0x30, 0x22, 0x03, 0x4d, 0x75, 0x6c, 0x0a, 0x2e, 0x0a,
  0x0b, 0x43, 0x6f, 0x6e, 0x76, 0x5f, 0x5f, 0x32, 0x36, 0x38, 0x3a, 0x30,
  0x0a, 0x08, 0x6d, 0x75, 0x6c, 0x5f, 0x31, 0x30, 0x3a, 0x30, 0x12, 0x08,
  0x6d, 0x75, 0x6c, 0x5f, 0x31, 0x31, 0x3a, 0x30, 0x1a, 0x06, 0x6d, 0x75,
  0x6c, 0x5f, 0x31, 0x31, 0x22, 0x03, 0x4d, 0x75, 0x6c, 0x0a, 0xb6, 0x01,
  0x0a, 0x08, 0x6d, 0x75, 0x6c, 0x5f, 0x31, 0x31, 0x3a, 0x30, 0x0a, 0x13,
  0x63, 0x6f, 0x6e, 0x73, 0x74, 0x5f, 0x66, 0x6f, 0x6c, 0x64, 0x5f, 0x6f,
  0x70, 0x74, 0x5f, 0x5f, 0x34, 0x36, 0x33, 0x0a, 0x16, 0x64, 0x65, 0x70,
  0x74, 0x68, 0x77, 0x69, 0x73, 0x65, 0x5f, 0x63, 0x6f, 0x6e, 0x76, 0x32,
  0x64, 0x5f, 0x35, 0x2f, 0x79, 0x3a, 0x30, 0x12, 0x0b, 0x43, 0x6f, 0x6e,
  0x76, 0x5f, 0x5f, 0x32, 0x37, 0x31, 0x3a, 0x30, 0x1a, 0x09, 0x43, 0x6f,
  0x6e, 0x76, 0x5f, 0x5f, 0x32, 0x37, 0x31, 0x22, 0x04, 0x43, 0x6f, 0x6e,
  0x76, 0x2a, 0x12, 0x0a, 0x09, 0x64, 0x69, 0x6c, 0x61, 0x74, 0x69, 0x6f,
  0x6e, 0x73, 0x40, 0x01, 0x40, 0x01, 0xa0, 0x01, 0x07, 0x2a, 0x10, 0x0a,
  0x07, 0x73, 0x74, 0x72, 0x69, 0x64, 0x65, 0x73, 0x40, 0x01, 0x40, 0x01,
  0xa0, 0x01, 0x07, 0x2a, 0x15, 0x0a, 0x0c, 0x6b, 0x65, 0x72, 0x6e, 0x65,
  0x6c, 0x5f, 0x73, 0x68, 0x61, 0x70, 0x65, 0x40, 0x05, 0x40, 0x05, 0xa0,
  0x01, 0x07, 0x2a, 0x0d, 0x0a, 0x05, 0x67, 0x72, 0x6f, 0x75, 0x70, 0x18,
  0x80, 0x01, 0xa0, 0x01, 0x02, 0x2a, 0x11, 0x0a, 0x04, 0x70, 0x61, 0x64,
  0x73, 0x40, 0x02, 0x40, 0x02, 0x40, 0x02, 0x40, 0x02, 0xa0, 0x01, 0x07,
  0x3a, 0x00, 0x0a, 0x37, 0x0a, 0x0b, 0x43, 0x6f, 0x6e, 0x76, 0x5f, 0x5f,
  0x32, 0x37, 0x31, 0x3a, 0x30, 0x0a, 0x13, 0x63, 0x6f, 0x6e, 0x73, 0x74,
  0x5f, 0x66, 0x6f, 0x6c, 0x64, 0x5f, 0x6f, 0x70, 0x74, 0x5f, 0x5f, 0x34,
  0x39, 0x31, 0x12, 0x07, 0x61, 0x64, 0x64, 0x5f, 0x36, 0x3a, 0x30, 0x1a,
  0x05, 0x61, 0x64, 0x64, 0x5f, 0x36, 0x22, 0x03, 0x41, 0x64, 0x64, 0x0a,
  0x47, 0x0a, 0x07, 0x61, 0x64, 0x64, 0x5f, 0x36, 0x3a, 0x30, 0x0a, 0x10,
  0x52, 0x65, 0x6c, 0x75, 0x36, 0x5f, 0x38, 0x5f, 0x6d, 0x69, 0x6e, 0x5f,
  0x5f, 0x31, 0x30, 0x39, 0x0a, 0x10, 0x52, 0x65, 0x6c, 0x75, 0x36, 0x5f,
  0x39, 0x5f, 0x6d, 0x61, 0x78, 0x5f, 0x5f, 0x31, 0x32, 0x32, 0x12, 0x09,
  0x52, 0x65, 0x6c, 0x75, 0x36, 0x5f, 0x36, 0x3a, 0x30, 0x1a, 0x07, 0x52,
  0x65, 0x6c, 0x75, 0x36, 0x5f, 0x36, 0x22, 0x04, 0x43, 0x6c, 0x69, 0x70,
  0x0a, 0x2e, 0x0a, 0x0a, 0x6d, 0x75, 0x6c, 0x5f, 0x31, 0x33, 0x2f, 0x79,
  0x3a, 0x30, 0x0a, 0x09, 0x52, 0x65, 0x6c, 0x75, 0x36, 0x5f, 0x36, 0x3a,
  0x30, 0x12, 0x08, 0x6d, 0x75, 0x6c, 0x5f, 0x31, 0x32, 0x3a, 0x30, 0x1a,
  0x06, 0x6d, 0x75, 0x6c, 0x5f, 0x31, 0x32, 0x22, 0x03, 0x4d, 0x75, 0x6c,
  0x0a, 0x2e, 0x0a, 0x0b, 0x43, 0x6f, 0x6e, 0x76, 0x5f, 0x5f, 0x32, 0x37,
  0x31, 0x3a, 0x30, 0x0a, 0x08, 0x6d, 0x75, 0x6c, 0x5f, 0x31, 0x32, 0x3a,
  0x30, 0x12, 0x08, 0x6d, 0x75, 0x6c, 0x5f, 0x31, 0x33, 0x3a, 0x30, 0x1a,
  0x06, 0x6d, 0x75, 0x6c, 0x5f, 0x31, 0x33, 0x22, 0x03, 0x4d, 0x75, 0x6c,
  0x0a, 0x8c, 0x01, 0x0a, 0x08, 0x6d, 0x75, 0x6c, 0x5f, 0x31, 0x33, 0x3a,
  0x30, 0x12, 0x25, 0x61, 0x76, 0x65, 0x72, 0x61, 0x67, 0x65, 0x5f, 0x70,
  0x6f, 0x6f, 0x6c, 0x69, 0x6e, 0x67, 0x32, 0x64, 0x5f, 0x33, 0x5f, 0x61,
  0x76, 0x67, 0x70, 0x6f, 0x6f, 0x6c, 0x2f, 0x41, 0x76, 0x67, 0x50, 0x6f,
  0x6f, 0x6c, 0x3a, 0x30, 0x1a, 0x23, 0x61, 0x76, 0x65, 0x72, 0x61, 0x67,
  0x65, 0x5f, 0x70, 0x6f, 0x6f, 0x6c, 0x69, 0x6e, 0x67, 0x32, 0x64, 0x5f,
  0x33, 0x5f, 0x61, 0x76, 0x67, 0x70, 0x6f, 0x6f, 0x6c, 0x2f, 0x41, 0x76,
  0x67, 0x50, 0x6f, 0x6f, 0x6c, 0x22, 0x0b, 0x41, 0x76, 0x65, 0x72, 0x61,
  0x67, 0x65, 0x50, 0x6f, 0x6f, 0x6c, 0x2a, 0x10, 0x0a, 0x07, 0x73, 0x74,
  0x72, 0x69, 0x64, 0x65, 0x73, 0x40, 0x10, 0x40, 0x10, 0xa0, 0x01, 0x07,
  0x2a, 0x15, 0x0a, 0x0c, 0x6b, 0x65, 0x72, 0x6e, 0x65, 0x6c, 0x5f, 0x73,
  0x68, 0x61, 0x70, 0x65, 0x40, 0x10, 0x40, 0x10, 0xa0, 0x01, 0x07, 0x0a,
  0xa9, 0x01, 0x0a, 0x25, 0x61, 0x76, 0x65, 0x72, 0x61, 0x67, 0x65, 0x5f,
  0x70, 0x6f, 0x6f, 0x6c, 0x69, 0x6e, 0x67, 0x32, 0x64, 0x5f, 0x33, 0x5f,
  0x61, 0x76, 0x67, 0x70, 0x6f, 0x6f, 0x6c, 0x2f, 0x41, 0x76, 0x67, 0x50,
  0x6f, 0x6f, 0x6c, 0x3a, 0x30, 0x0a, 0x12, 0x43, 0x6f, 0x6e, 0x76, 0x32,
  0x44, 0x5f, 0x31, 0x39, 0x2f, 0x66, 0x69, 0x6c, 0x74, 0x65, 0x72, 0x3a,
  0x30, 0x0a, 0x0f, 0x63, 0x6f, 0x6e, 0x76, 0x32, 0x64, 0x5f, 0x31, 0x38,
  0x5f, 0x31, 0x2f, 0x79, 0x3a, 0x30, 0x12, 0x0b, 0x43, 0x6f, 0x6e, 0x76,
  0x5f, 0x5f, 0x32, 0x37, 0x34, 0x3a, 0x30, 0x1a, 0x09, 0x43, 0x6f, 0x6e,
  0x76, 0x5f, 0x5f, 0x32, 0x37, 0x34, 0x22, 0x04, 0x43, 0x6f, 0x6e, 0x76,
  0x2a, 0x12, 0x0a, 0x09, 0x64, 0x69, 0x6c, 0x61, 0x74, 0x69, 0x6f, 0x6e,
  0x73, 0x40, 0x01, 0x40, 0x01, 0xa0, 0x01, 0x07, 0x2a, 0x10, 0x0a, 0x07,
  0x73, 0x74, 0x72, 0x69, 0x64, 0x65, 0x73, 0x40, 0x01, 0x40, 0x01, 0xa0,
  0x01, 0x07, 0x2a, 0x15, 0x0a, 0x0c, 0x6b, 0x65, 0x72, 0x6e, 0x65, 0x6c,
  0x5f, 0x73, 0x68, 0x61, 0x70, 0x65, 0x40, 0x01, 0x40, 0x01, 0xa0, 0x01,
  0x07, 0x3a, 0x00, 0x0a, 0x27, 0x0a, 0x0b, 0x43, 0x6f, 0x6e, 0x76, 0x5f,
  0x5f, 0x32, 0x37, 0x34, 0x3a, 0x30, 0x12, 0x09, 0x72, 0x65, 0x5f, 0x6c,
  0x75, 0x5f, 0x39, 0x3a, 0x30, 0x1a, 0x07, 0x72, 0x65, 0x5f, 0x6c, 0x75,
  0x5f, 0x39, 0x22, 0x04, 0x52, 0x65, 0x6c, 0x75, 0x0a, 0x8d, 0x01, 0x0a,
  0x09, 0x72, 0x65, 0x5f, 0x6c, 0x75, 0x5f, 0x39, 0x3a, 0x30, 0x0a, 0x12,
  0x43, 0x6f, 0x6e, 0x76, 0x32, 0x44, 0x5f, 0x32, 0x30, 0x2f, 0x66, 0x69,
  0x6c, 0x74, 0x65, 0x72, 0x3a, 0x30, 0x0a, 0x0f, 0x63, 0x6f, 0x6e, 0x76,
  0x32, 0x64, 0x5f, 0x31, 0x39, 0x5f, 0x31, 0x2f, 0x79, 0x3a, 0x30, 0x12,
  0x0b, 0x43, 0x6f, 0x6e, 0x76, 0x5f, 0x5f, 0x32, 0x37, 0x35, 0x3a, 0x30,
  0x1a, 0x09, 0x43, 0x6f, 0x6e, 0x76, 0x5f, 0x5f, 0x32, 0x37, 0x35, 0x22,
  0x04, 0x43, 0x6f, 0x6e, 0x76, 0x2a, 0x12, 0x0a, 0x09, 0x64, 0x69, 0x6c,
  0x61, 0x74, 0x69, 0x6f, 0x6e, 0x73, 0x40, 0x01, 0x40, 0x01, 0xa0, 0x01,
  0x07, 0x2a, 0x10, 0x0a, 0x07, 0x73, 0x74, 0x72, 0x69, 0x64, 0x65, 0x73,
  0x40, 0x01, 0x40, 0x01, 0xa0, 0x01, 0x07, 0x2a, 0x15, 0x0a, 0x0c, 0x6b,
  0x65, 0x72, 0x6e, 0x65, 0x6c, 0x5f, 0x73, 0x68, 0x61, 0x70, 0x65, 0x40,
  0x01, 0x40, 0x01, 0xa0, 0x01, 0x07, 0x3a, 0x00, 0x0a, 0x34, 0x0a, 0x0b,
  0x43, 0x6f, 0x6e, 0x76, 0x5f, 0x5f, 0x32, 0x37, 0x35, 0x3a, 0x30, 0x12,
  0x0e, 0x61, 0x63, 0x74, 0x69, 0x76, 0x61, 0x74, 0x69, 0x6f, 0x6e, 0x5f,
  0x33, 0x3a, 0x30, 0x1a, 0x0c, 0x61, 0x63, 0x74, 0x69, 0x76, 0x61, 0x74,
  0x69, 0x6f, 0x6e, 0x5f, 0x33, 0x22, 0x07, 0x53, 0x69, 0x67, 0x6d, 0x6f,
  0x69, 0x64, 0x0a, 0x39, 0x0a, 0x08, 0x6d, 0x75, 0x6c, 0x5f, 0x31, 0x33,
  0x3a, 0x30, 0x0a, 0x0e, 0x61, 0x63, 0x74, 0x69, 0x76, 0x61, 0x74, 0x69,
  0x6f, 0x6e, 0x5f, 0x33, 0x3a, 0x30, 0x12, 0x0c, 0x6d, 0x75, 0x6c, 0x74,
  0x69, 0x70, 0x6c, 0x79, 0x5f, 0x33, 0x3a, 0x30, 0x1a, 0x0a, 0x6d, 0x75,
  0x6c, 0x74, 0x69, 0x70, 0x6c, 0x79, 0x5f, 0x33, 0x22, 0x03, 0x4d, 0x75,
  0x6c, 0x0a, 0xa3, 0x01, 0x0a, 0x0c, 0x6d, 0x75, 0x6c, 0x74, 0x69, 0x70,
  0x6c, 0x79, 0x5f, 0x33, 0x3a, 0x30, 0x0a, 0x12, 0x43, 0x6f, 0x6e, 0x76,
  0x32, 0x44, 0x5f, 0x32, 0x31, 0x2f, 0x66, 0x69, 0x6c, 0x74, 0x65, 0x72,
  0x3a, 0x30, 0x0a, 0x0f, 0x63, 0x6f, 0x6e, 0x76, 0x32, 0x64, 0x5f, 0x32,
  0x30, 0x5f, 0x31, 0x2f, 0x79, 0x3a, 0x30, 0x12, 0x0b, 0x43, 0x6f, 0x6e,
  0x76, 0x5f, 0x5f, 0x32, 0x37, 0x36, 0x3a, 0x30, 0x1a, 0x09, 0x43, 0x6f,
  0x6e, 0x76, 0x5f, 0x5f, 0x32, 0x37, 0x36, 0x22, 0x04, 0x43, 0x6f, 0x6e,
  0x76, 0x2a, 0x12, 0x0a, 0x09, 0x64, 0x69, 0x6c, 0x61, 0x74, 0x69, 0x6f,
  0x6e, 0x73, 0x40, 0x01, 0x40, 0x01, 0xa0, 0x01, 0x07, 0x2a, 0x10, 0x0a,
  0x07, 0x73, 0x74, 0x72, 0x69, 0x64, 0x65, 0x73, 0x40, 0x01, 0x40, 0x01,
  0xa0, 0x01, 0x07, 0x2a, 0x15, 0x0a, 0x0c, 0x6b, 0x65, 0x72, 0x6e, 0x65,
  0x6c, 0x5f, 0x73, 0x68, 0x61, 0x70, 0x65, 0x40, 0x01, 0x40, 0x01, 0xa0,
  0x01, 0x07, 0x2a, 0x11, 0x0a, 0x04, 0x70, 0x61, 0x64, 0x73, 0x40, 0x00,
  0x40, 0x00, 0x40, 0x00, 0x40, 0x00, 0xa0, 0x01, 0x07, 0x3a, 0x00, 0x0a,
  0x5b, 0x0a, 0x0b, 0x43, 0x6f, 0x6e, 0x76, 0x5f, 0x5f, 0x32, 0x37, 0x36,
  0x3a, 0x30, 0x0a, 0x17, 0x61, 0x64, 0x64, 0x5f, 0x31, 0x5f, 0x5f, 0x78,
  0x65, 0x6e, 0x6f, 0x5f, 0x63, 0x6f, 0x6d, 0x70, 0x61, 0x74, 0x5f, 0x5f,
  0x31, 0x3a, 0x30, 0x12, 0x17, 0x61, 0x64, 0x64, 0x5f, 0x32, 0x5f, 0x5f,
  0x78, 0x65, 0x6e, 0x6f, 0x5f, 0x63, 0x6f, 0x6d, 0x70, 0x61, 0x74, 0x5f,
  0x5f, 0x31, 0x3a, 0x30, 0x1a, 0x15, 0x61, 0x64, 0x64, 0x5f, 0x32, 0x5f,
  0x5f, 0x78, 0x65, 0x6e, 0x6f, 0x5f, 0x63, 0x6f, 0x6d, 0x70, 0x61, 0x74,
  0x5f, 0x5f, 0x31, 0x22, 0x03, 0x41, 0x64, 0x64, 0x0a, 0xae, 0x01, 0x0a,
  0x17, 0x61, 0x64, 0x64, 0x5f, 0x32, 0x5f, 0x5f, 0x78, 0x65, 0x6e, 0x6f,
  0x5f, 0x63, 0x6f, 0x6d, 0x70, 0x61, 0x74, 0x5f, 0x5f, 0x31, 0x3a, 0x30,
  0x0a, 0x12, 0x43, 0x6f, 0x6e, 0x76, 0x32, 0x44, 0x5f, 0x32, 0x32, 0x2f,
  0x66, 0x69, 0x6c, 0x74, 0x65, 0x72, 0x3a, 0x30, 0x0a, 0x0f, 0x63, 0x6f,
  0x6e, 0x76, 0x32, 0x64, 0x5f, 0x32, 0x31, 0x5f, 0x31, 0x2f, 0x79, 0x3a,
  0x30, 0x12, 0x0b, 0x43, 0x6f, 0x6e, 0x76, 0x5f, 0x5f, 0x32, 0x37, 0x39,
  0x3a, 0x30, 0x1a, 0x09, 0x43, 0x6f, 0x6e, 0x76, 0x5f, 0x5f, 0x32, 0x37,
  0x39, 0x22, 0x04, 0x43, 0x6f, 0x6e, 0x76, 0x2a, 0x12, 0x0a, 0x09, 0x64,
  0x69, 0x6c, 0x61, 0x74, 0x69, 0x6f, 0x6e, 0x73, 0x40, 0x01, 0x40, 0x01,
  0xa0, 0x01, 0x07, 0x2a, 0x10, 0x0a, 0x07, 0x73, 0x74, 0x72, 0x69, 0x64,
  0x65, 0x73, 0x40, 0x01, 0x40, 0x01, 0xa0, 0x01, 0x07, 0x2a, 0x15, 0x0a,
  0x0c, 0x6b, 0x65, 0x72, 0x6e, 0x65, 0x6c, 0x5f, 0x73, 0x68, 0x61, 0x70,
  0x65, 0x40, 0x01, 0x40, 0x01, 0xa0, 0x01, 0x07, 0x2a, 0x11, 0x0a, 0x04,
  0x70, 0x61, 0x64, 0x73, 0x40, 0x00, 0x40, 0x00, 0x40, 0x00, 0x40, 0x00,
  0xa0, 0x01, 0x07, 0x3a, 0x00, 0x0a, 0x37, 0x0a, 0x0b, 0x43, 0x6f, 0x6e,
  0x76, 0x5f, 0x5f, 0x32, 0x37, 0x39, 0x3a, 0x30, 0x0a, 0x13, 0x63, 0x6f,
  0x6e, 0x73, 0x74, 0x5f, 0x66, 0x6f, 0x6c, 0x64, 0x5f, 0x6f, 0x70, 0x74,
  0x5f, 0x5f, 0x34, 0x39, 0x31, 0x12, 0x07, 0x61, 0x64, 0x64, 0x5f, 0x37,
  0x3a, 0x30, 0x1a, 0x05, 0x61, 0x64, 0x64, 0x5f, 0x37, 0x22, 0x03, 0x41,
  0x64, 0x64, 0x0a, 0x47, 0x0a, 0x07, 0x61, 0x64, 0x64, 0x5f, 0x37, 0x3a,
  0x30, 0x0a, 0x10, 0x52, 0x65, 0x6c, 0x75, 0x36, 0x5f, 0x38, 0x5f, 0x6d,
  0x69, 0x6e, 0x5f, 0x5f, 0x31, 0x30, 0x39, 0x0a, 0x10, 0x52, 0x65, 0x6c,
  0x75, 0x36, 0x5f, 0x39, 0x5f, 0x6d, 0x61, 0x78, 0x5f, 0x5f, 0x31, 0x32,
  0x32, 0x12, 0x09, 0x52, 0x65, 0x6c, 0x75, 0x36, 0x5f, 0x37, 0x3a, 0x30,
  0x1a, 0x07, 0x52, 0x65, 0x6c, 0x75, 0x36, 0x5f, 0x37, 0x22, 0x04, 0x43,
  0x6c, 0x69, 0x70, 0x0a, 0x2e, 0x0a, 0x0a, 0x6d, 0x75, 0x6c, 0x5f, 0x31,
  0x33, 0x2f, 0x79, 0x3a, 0x30, 0x0a, 0x09, 0x52, 0x65, 0x6c, 0x75, 0x36,
  0x5f, 0x37, 0x3a, 0x30, 0x12, 0x08, 0x6d, 0x75, 0x6c, 0x5f, 0x31, 0x34,
  0x3a, 0x30, 0x1a, 0x06, 0x6d, 0x75, 0x6c, 0x5f, 0x31, 0x34, 0x22, 0x03,
  0x4d, 0x75, 0x6c, 0x0a, 0x2e, 0x0a, 0x0b, 0x43, 0x6f, 0x6e, 0x76, 0x5f,
  0x5f, 0x32, 0x37, 0x39, 0x3a, 0x30, 0x0a, 0x08, 0x6d, 0x75, 0x6c, 0x5f,
  0x31, 0x34, 0x3a, 0x30, 0x12, 0x08, 0x6d, 0x75, 0x6c, 0x5f, 0x31, 0x35,
  0x3a, 0x30, 0x1a, 0x06, 0x6d, 0x75, 0x6c, 0x5f, 0x31, 0x35, 0x22, 0x03,
  0x4d, 0x75, 0x6c, 0x0a, 0xb5, 0x01, 0x0a, 0x08, 0x6d, 0x75, 0x6c, 0x5f,
  0x31, 0x35, 0x3a, 0x30, 0x0a, 0x13, 0x63, 0x6f, 0x6e, 0x73, 0x74, 0x5f,
  0x66, 0x6f, 0x6c, 0x64, 0x5f, 0x6f, 0x70, 0x74, 0x5f, 0x5f, 0x34, 0x36,
  0x35, 0x0a, 0x16, 0x64, 0x65, 0x70, 0x74, 0x68, 0x77, 0x69, 0x73, 0x65,
  0x5f, 0x63, 0x6f, 0x6e, 0x76, 0x32, 0x64, 0x5f, 0x36, 0x2f, 0x79, 0x3a,
  0x30, 0x12, 0x0b, 0x43, 0x6f, 0x6e, 0x76, 0x5f, 0x5f, 0x32, 0x38, 0x32,
  0x3a, 0x30, 0x1a, 0x09, 0x43, 0x6f, 0x6e, 0x76, 0x5f, 0x5f, 0x32, 0x38,
  0x32, 0x22, 0x04, 0x43, 0x6f, 0x6e, 0x76, 0x2a, 0x12, 0x0a, 0x09, 0x64,
  0x69, 0x6c, 0x61, 0x74, 0x69, 0x6f, 0x6e, 0x73, 0x40, 0x01, 0x40, 0x01,
  0xa0, 0x01, 0x07, 0x2a, 0x10, 0x0a, 0x07, 0x73, 0x74, 0x72, 0x69, 0x64,
  0x65, 0x73, 0x40, 0x01, 0x40, 0x01, 0xa0, 0x01, 0x07, 0x2a, 0x15, 0x0a,
  0x0c, 0x6b, 0x65, 0x72, 0x6e, 0x65, 0x6c, 0x5f, 0x73, 0x68, 0x61, 0x70,
  0x65, 0x40, 0x05, 0x40, 0x05, 0xa0, 0x01, 0x07, 0x2a, 0x0c, 0x0a, 0x05,
  0x67, 0x72, 0x6f, 0x75, 0x70, 0x18, 0x60, 0xa0, 0x01, 0x02, 0x2a, 0x11,
  0x0a, 0x04, 0x70, 0x61, 0x64, 0x73, 0x40, 0x02, 0x40, 0x02, 0x40, 0x02,
  0x40, 0x02, 0xa0, 0x01, 0x07, 0x3a, 0x00, 0x0a, 0x37, 0x0a, 0x0b, 0x43,
  0x6f, 0x6e, 0x76, 0x5f, 0x5f, 0x32, 0x38, 0x32, 0x3a, 0x30, 0x0a, 0x13,
  0x63, 0x6f, 0x6e, 0x73, 0x74, 0x5f, 0x66, 0x6f, 0x6c, 0x64, 0x5f, 0x6f,
  0x70, 0x74, 0x5f, 0x5f, 0x34, 0x39, 0x31, 0x12, 0x07, 0x61, 0x64, 0x64,
  0x5f, 0x38, 0x3a, 0x30, 0x1a, 0x05, 0x61, 0x64, 0x64, 0x5f, 0x38, 0x22,
  0x03, 0x41, 0x64, 0x64, 0x0a, 0x47, 0x0a, 0x07, 0x61, 0x64, 0x64, 0x5f,
  0x38, 0x3a, 0x30, 0x0a, 0x10, 0x52, 0x65, 0x6c, 0x75, 0x36, 0x5f, 0x38,
  0x5f, 0x6d, 0x69, 0x6e, 0x5f, 0x5f, 0x31, 0x30, 0x39, 0x0a, 0x10, 0x52,
  0x65, 0x6c, 0x75, 0x36, 0x5f, 0x39, 0x5f, 0x6d, 0x61, 0x78, 0x5f, 0x5f,
  0x31, 0x32, 0x32, 0x12, 0x09, 0x52, 0x65, 0x6c, 0x75, 0x36, 0x5f, 0x38,
  0x3a, 0x30, 0x1a, 0x07, 0x52, 0x65, 0x6c, 0x75, 0x36, 0x5f, 0x38, 0x22,
  0x04, 0x43, 0x6c, 0x69, 0x70, 0x0a, 0x2e, 0x0a, 0x0a, 0x6d, 0x75, 0x6c,
  0x5f, 0x31, 0x33, 0x2f, 0x79, 0x3a, 0x30, 0x0a, 0x09, 0x52, 0x65, 0x6c,
  0x75, 0x36, 0x5f, 0x38, 0x3a, 0x30, 0x12, 0x08, 0x6d, 0x75, 0x6c, 0x5f,
  0x31, 0x36, 0x3a, 0x30, 0x1a, 0x06, 0x6d, 0x75, 0x6c, 0x5f, 0x31, 0x36,
  0x22, 0x03, 0x4d, 0x75, 0x6c, 0x0a, 0x2e, 0x0a, 0x0b, 0x43, 0x6f, 0x6e,
  0x76, 0x5f, 0x5f, 0x32, 0x38, 0x32, 0x3a, 0x30, 0x0a, 0x08, 0x6d, 0x75,
  0x6c, 0x5f, 0x31, 0x36, 0x3a, 0x30, 0x12, 0x08, 0x6d, 0x75, 0x6c, 0x5f,
  0x31, 0x37, 0x3a, 0x30, 0x1a, 0x06, 0x6d, 0x75, 0x6c, 0x5f, 0x31, 0x37,
  0x22, 0x03, 0x4d, 0x75, 0x6c, 0x0a, 0x8c, 0x01, 0x0a, 0x08, 0x6d, 0x75,
  0x6c, 0x5f, 0x31, 0x37, 0x3a, 0x30, 0x12, 0x25, 0x61, 0x76, 0x65, 0x72,
  0x61, 0x67, 0x65, 0x5f, 0x70, 0x6f, 0x6f, 0x6c, 0x69, 0x6e, 0x67, 0x32,
  0x64, 0x5f, 0x34, 0x5f, 0x61, 0x76, 0x67, 0x70, 0x6f, 0x6f, 0x6c, 0x2f,
  0x41, 0x76, 0x67, 0x50, 0x6f, 0x6f, 0x6c, 0x3a, 0x30, 0x1a, 0x23, 0x61,
  0x76, 0x65, 0x72, 0x61, 0x67, 0x65, 0x5f, 0x70, 0x6f, 0x6f, 0x6c, 0x69,
  0x6e, 0x67, 0x32, 0x64, 0x5f, 0x34, 0x5f, 0x61, 0x76, 0x67, 0x70, 0x6f,
  0x6f, 0x6c, 0x2f, 0x41, 0x76, 0x67, 0x50, 0x6f, 0x6f, 0x6c, 0x22, 0x0b,
  0x41, 0x76, 0x65, 0x72, 0x61, 0x67, 0x65, 0x50, 0x6f, 0x6f, 0x6c, 0x2a,
  0x10, 0x0a, 0x07, 0x73, 0x74, 0x72, 0x69, 0x64, 0x65, 0x73, 0x40, 0x10,
  0x40, 0x10, 0xa0, 0x01, 0x07, 0x2a, 0x15, 0x0a, 0x0c, 0x6b, 0x65, 0x72,
  0x6e, 0x65, 0x6c, 0x5f, 0x73, 0x68, 0x61, 0x70, 0x65, 0x40, 0x10, 0x40,
  0x10, 0xa0, 0x01, 0x07, 0x0a, 0xa9, 0x01, 0x0a, 0x25, 0x61, 0x76, 0x65,
  0x72, 0x61, 0x67, 0x65, 0x5f, 0x70, 0x6f, 0x6f, 0x6c, 0x69, 0x6e, 0x67,
  0x32, 0x64, 0x5f, 0x34, 0x5f, 0x61, 0x76, 0x67, 0x70, 0x6f, 0x6f, 0x6c,
  0x2f, 0x41, 0x76, 0x67, 0x50, 0x6f, 0x6f, 0x6c, 0x3a, 0x30, 0x0a, 0x12,
  0x43, 0x6f, 0x6e, 0x76, 0x32, 0x44, 0x5f, 0x32, 0x33, 0x2f, 0x66, 0x69,
  0x6c, 0x74, 0x65, 0x72, 0x3a, 0x30, 0x0a, 0x0f, 0x63, 0x6f, 0x6e, 0x76,
  0x32, 0x64, 0x5f, 0x32, 0x32, 0x5f, 0x31, 0x2f, 0x79, 0x3a, 0x30, 0x12,
  0x0b, 0x43, 0x6f, 0x6e, 0x76, 0x5f, 0x5f, 0x32, 0x38, 0x35, 0x3a, 0x30,
  0x1a, 0x09, 0x43, 0x6f, 0x6e, 0x76, 0x5f, 0x5f, 0x32, 0x38, 0x35, 0x22,
  0x04, 0x43, 0x6f, 0x6e, 0x76, 0x2a, 0x12, 0x0a, 0x09, 0x64, 0x69, 0x6c,
  0x61, 0x74, 0x69, 0x6f, 0x6e, 0x73, 0x40, 0x01, 0x40, 0x01, 0xa0, 0x01,
  0x07, 0x2a, 0x10, 0x0a, 0x07, 0x73, 0x74, 0x72, 0x69, 0x64, 0x65, 0x73,
  0x40, 0x01, 0x40, 0x01, 0xa0, 0x01, 0x07, 0x2a, 0x15, 0x0a, 0x0c, 0x6b,
  0x65, 0x72, 0x6e, 0x65, 0x6c, 0x5f, 0x73, 0x68, 0x61, 0x70, 0x65, 0x40,
  0x01, 0x40, 0x01, 0xa0, 0x01, 0x07, 0x3a, 0x00, 0x0a, 0x29, 0x0a, 0x0b,
  0x43, 0x6f, 0x6e, 0x76, 0x5f, 0x5f, 0x32, 0x38, 0x35, 0x3a, 0x30, 0x12,
  0x0a, 0x72, 0x65, 0x5f, 0x6c, 0x75, 0x5f, 0x31, 0x30, 0x3a, 0x30, 0x1a,
  0x08, 0x72, 0x65, 0x5f, 0x6c, 0x75, 0x5f, 0x31, 0x30, 0x22, 0x04, 0x52,
  0x65, 0x6c, 0x75, 0x0a, 0x8e, 0x01, 0x0a, 0x0a, 0x72, 0x65, 0x5f, 0x6c,
  0x75, 0x5f, 0x31, 0x30, 0x3a, 0x30, 0x0a, 0x12, 0x43, 0x6f, 0x6e, 0x76,
  0x32, 0x44, 0x5f, 0x32, 0x34, 0x2f, 0x66, 0x69, 0x6c, 0x74, 0x65, 0x72,
  0x3a, 0x30, 0x0a, 0x0f, 0x63, 0x6f, 0x6e, 0x76, 0x32, 0x64, 0x5f, 0x32,
  0x33, 0x5f, 0x31, 0x2f, 0x79, 0x3a, 0x30, 0x12, 0x0b, 0x43, 0x6f, 0x6e,
  0x76, 0x5f, 0x5f, 0x32, 0x38, 0x36, 0x3a, 0x30, 0x1a, 0x09, 0x43, 0x6f,
  0x6e, 0x76, 0x5f, 0x5f, 0x32, 0x38, 0x36, 0x22, 0x04, 0x43, 0x6f, 0x6e,
  0x76, 0x2a, 0x12, 0x0a, 0x09, 0x64, 0x69, 0x6c, 0x61, 0x74, 0x69, 0x6f,
  0x6e, 0x73, 0x40, 0x01, 0x40, 0x01, 0xa0, 0x01, 0x07, 0x2a, 0x10, 0x0a,
  0x07, 0x73, 0x74, 0x72, 0x69, 0x64, 0x65, 0x73, 0x40, 0x01, 0x40, 0x01,
  0xa0, 0x01, 0x07, 0x2a, 0x15, 0x0a, 0x0c, 0x6b, 0x65, 0x72, 0x6e, 0x65,
  0x6c, 0x5f, 0x73, 0x68, 0x61, 0x70, 0x65, 0x40, 0x01, 0x40, 0x01, 0xa0,
  0x01, 0x07, 0x3a, 0x00, 0x0a, 0x34, 0x0a, 0x0b, 0x43, 0x6f, 0x6e, 0x76,
  0x5f, 0x5f, 0x32, 0x38, 0x36, 0x3a, 0x30, 0x12, 0x0e, 0x61, 0x63, 0x74,
  0x69, 0x76, 0x61, 0x74, 0x69, 0x6f, 0x6e, 0x5f, 0x34, 0x3a, 0x30, 0x1a,
  0x0c, 0x61, 0x63, 0x74, 0x69, 0x76, 0x61, 0x74, 0x69, 0x6f, 0x6e, 0x5f,
  0x34, 0x22, 0x07, 0x53, 0x69, 0x67, 0x6d, 0x6f, 0x69, 0x64, 0x0a, 0x39,
  0x0a, 0x08, 0x6d, 0x75, 0x6c, 0x5f, 0x31, 0x37, 0x3a, 0x30, 0x0a, 0x0e,
  0x61, 0x63, 0x74, 0x69, 0x76, 0x61, 0x74, 0x69, 0x6f, 0x6e, 0x5f, 0x34,
  0x3a, 0x30, 0x12, 0x0c, 0x6d, 0x75, 0x6c, 0x74, 0x69, 0x70, 0x6c, 0x79,
  0x5f, 0x34, 0x3a, 0x30, 0x1a, 0x0a, 0x6d, 0x75, 0x6c, 0x74, 0x69, 0x70,
  0x6c, 0x79, 0x5f, 0x34, 0x22, 0x03, 0x4d, 0x75, 0x6c, 0x0a, 0xa3, 0x01,
  0x0a, 0x0c, 0x6d, 0x75, 0x6c, 0x74, 0x69, 0x70, 0x6c, 0x79, 0x5f, 0x34,
  0x3a, 0x30, 0x0a, 0x12, 0x43, 0x6f, 0x6e, 0x76, 0x32, 0x44, 0x5f, 0x32,
  0x35, 0x2f, 0x66, 0x69, 0x6c, 0x74, 0x65, 0x72, 0x3a, 0x30, 0x0a, 0x0f,
  0x63, 0x6f, 0x6e, 0x76, 0x32, 0x64, 0x5f, 0x32, 0x34, 0x5f, 0x31, 0x2f,
  0x79, 0x3a, 0x30, 0x12, 0x0b, 0x43, 0x6f, 0x6e, 0x76, 0x5f, 0x5f, 0x32,
  0x38, 0x37, 0x3a, 0x30, 0x1a, 0x09, 0x43, 0x6f, 0x6e, 0x76, 0x5f, 0x5f,
  0x32, 0x38, 0x37, 0x22, 0x04, 0x43, 0x6f, 0x6e, 0x76, 0x2a, 0x12, 0x0a,
  0x09, 0x64, 0x69, 0x6c, 0x61, 0x74, 0x69, 0x6f, 0x6e, 0x73, 0x40, 0x01,
  0x40, 0x01, 0xa0, 0x01, 0x07, 0x2a, 0x10, 0x0a, 0x07, 0x73, 0x74, 0x72,
  0x69, 0x64, 0x65, 0x73, 0x40, 0x01, 0x40, 0x01, 0xa0, 0x01, 0x07, 0x2a,
  0x15, 0x0a, 0x0c, 0x6b, 0x65, 0x72, 0x6e, 0x65, 0x6c, 0x5f, 0x73, 0x68,
  0x61, 0x70, 0x65, 0x40, 0x01, 0x40, 0x01, 0xa0, 0x01, 0x07, 0x2a, 0x11,
  0x0a, 0x04, 0x70, 0x61, 0x64, 0x73, 0x40, 0x00, 0x40, 0x00, 0x40, 0x00,
  0x40, 0x00, 0xa0, 0x01, 0x07, 0x3a, 0x00, 0x0a, 0x5b, 0x0a, 0x0b, 0x43,
  0x6f, 0x6e, 0x76, 0x5f, 0x5f, 0x32, 0x38, 0x37, 0x3a, 0x30, 0x0a, 0x17,
  0x61, 0x64, 0x64, 0x5f, 0x32, 0x5f, 0x5f, 0x78, 0x65, 0x6e, 0x6f, 0x5f,
  0x63, 0x6f, 0x6d, 0x70, 0x61, 0x74, 0x5f, 0x5f, 0x31, 0x3a, 0x30, 0x12,
  0x17, 0x61, 0x64, 0x64, 0x5f, 0x33, 0x5f, 0x5f, 0x78, 0x65, 0x6e, 0x6f,
  0x5f, 0x63, 0x6f, 0x6d, 0x70, 0x61, 0x74, 0x5f, 0x5f, 0x31, 0x3a, 0x30,
  0x1a, 0x15, 0x61, 0x64, 0x64, 0x5f, 0x33, 0x5f, 0x5f, 0x78, 0x65, 0x6e,
  0x6f, 0x5f, 0x63, 0x6f, 0x6d, 0x70, 0x61, 0x74, 0x5f, 0x5f, 0x31, 0x22,
  0x03, 0x41, 0x64, 0x64, 0x0a, 0xae, 0x01, 0x0a, 0x17, 0x61, 0x64, 0x64,
  0x5f, 0x33, 0x5f, 0x5f, 0x78, 0x65, 0x6e, 0x6f, 0x5f, 0x63, 0x6f, 0x6d,
  0x70, 0x61, 0x74, 0x5f, 0x5f, 0x31, 0x3a, 0x30, 0x0a, 0x12, 0x43, 0x6f,
  0x6e, 0x76, 0x32, 0x44, 0x5f, 0x32, 0x36, 0x2f, 0x66, 0x69, 0x6c, 0x74,
  0x65, 0x72, 0x3a, 0x30, 0x0a, 0x0f, 0x63, 0x6f, 0x6e, 0x76, 0x32, 0x64,
  0x5f, 0x32, 0x35, 0x5f, 0x31, 0x2f, 0x79, 0x3a, 0x30, 0x12, 0x0b, 0x43,
  0x6f, 0x6e, 0x76, 0x5f, 0x5f, 0x32, 0x39, 0x30, 0x3a, 0x30, 0x1a, 0x09,
  0x43, 0x6f, 0x6e, 0x76, 0x5f, 0x5f, 0x32, 0x39, 0x30, 0x22, 0x04, 0x43,
  0x6f, 0x6e, 0x76, 0x2a, 0x12, 0x0a, 0x09, 0x64, 0x69, 0x6c, 0x61, 0x74,
  0x69, 0x6f, 0x6e, 0x73, 0x40, 0x01, 0x40, 0x01, 0xa0, 0x01, 0x07, 0x2a,
  0x10, 0x0a, 0x07, 0x73, 0x74, 0x72, 0x69, 0x64, 0x65, 0x73, 0x40, 0x01,
  0x40, 0x01, 0xa0, 0x01, 0x07, 0x2a, 0x15, 0x0a, 0x0c, 0x6b, 0x65, 0x72,
  0x6e, 0x65, 0x6c, 0x5f, 0x73, 0x68, 0x61, 0x70, 0x65, 0x40, 0x01, 0x40,
  0x01, 0xa0, 0x01, 0x07, 0x2a, 0x11, 0x0a, 0x04, 0x70, 0x61, 0x64, 0x73,
  0x40, 0x00, 0x40, 0x00, 0x40, 0x00, 0x40, 0x00, 0xa0, 0x01, 0x07, 0x3a,
  0x00, 0x0a, 0x37, 0x0a, 0x0b, 0x43, 0x6f, 0x6e, 0x76, 0x5f, 0x5f, 0x32,
  0x39, 0x30, 0x3a, 0x30, 0x0a, 0x13, 0x63, 0x6f, 0x6e, 0x73, 0x74, 0x5f,
  0x66, 0x6f, 0x6c, 0x64, 0x5f, 0x6f, 0x70, 0x74, 0x5f, 0x5f, 0x34, 0x39,
  0x31, 0x12, 0x07, 0x61, 0x64, 0x64, 0x5f, 0x39, 0x3a, 0x30, 0x1a, 0x05,
  0x61, 0x64, 0x64, 0x5f, 0x39, 0x22, 0x03, 0x41, 0x64, 0x64, 0x0a, 0x47,
  0x0a, 0x07, 0x61, 0x64, 0x64, 0x5f, 0x39, 0x3a, 0x30, 0x0a, 0x10, 0x52,
  0x65, 0x6c, 0x75, 0x36, 0x5f, 0x38, 0x5f, 0x6d, 0x69, 0x6e, 0x5f, 0x5f,
  0x31, 0x30, 0x39, 0x0a, 0x10, 0x52, 0x65, 0x6c, 0x75, 0x36, 0x5f, 0x39,
  0x5f, 0x6d, 0x61, 0x78, 0x5f, 0x5f, 0x31, 0x32, 0x32, 0x12, 0x09, 0x52,
  0x65, 0x6c, 0x75, 0x36, 0x5f, 0x39, 0x3a, 0x30, 0x1a, 0x07, 0x52, 0x65,
  0x6c, 0x75, 0x36, 0x5f, 0x39, 0x22, 0x04, 0x43, 0x6c, 0x69, 0x70, 0x0a,
  0x2e, 0x0a, 0x0a, 0x6d, 0x75, 0x6c, 0x5f, 0x31, 0x33, 0x2f, 0x79, 0x3a,
  0x30, 0x0a, 0x09, 0x52, 0x65, 0x6c, 0x75, 0x36, 0x5f, 0x39, 0x3a, 0x30,
  0x12, 0x08, 0x6d, 0x75, 0x6c, 0x5f, 0x31, 0x38, 0x3a, 0x30, 0x1a, 0x06,
  0x6d, 0x75, 0x6c, 0x5f, 0x31, 0x38, 0x22, 0x03, 0x4d, 0x75, 0x6c, 0x0a,
  0x2e, 0x0a, 0x0b, 0x43, 0x6f, 0x6e, 0x76, 0x5f, 0x5f, 0x32, 0x39, 0x30,
  0x3a, 0x30, 0x0a, 0x08, 0x6d, 0x75, 0x6c, 0x5f, 0x31, 0x38, 0x3a, 0x30,
  0x12, 0x08, 0x6d, 0x75, 0x6c, 0x5f, 0x31, 0x39, 0x3a, 0x30, 0x1a, 0x06,
  0x6d, 0x75, 0x6c, 0x5f, 0x31, 0x39, 0x22, 0x03, 0x4d, 0x75, 0x6c, 0x0a,
  0xb5, 0x01, 0x0a, 0x08, 0x6d, 0x75, 0x6c, 0x5f, 0x31, 0x39, 0x3a, 0x30,
  0x0a, 0x13, 0x63, 0x6f, 0x6e, 0x73, 0x74, 0x5f, 0x66, 0x6f, 0x6c, 0x64,
  0x5f, 0x6f, 0x70, 0x74, 0x5f, 0x5f, 0x34, 0x36, 0x31, 0x0a, 0x16, 0x64,
  0x65, 0x70, 0x74, 0x68, 0x77, 0x69, 0x73, 0x65, 0x5f, 0x63, 0x6f, 0x6e,
  0x76, 0x32, 0x64, 0x5f, 0x37, 0x2f, 0x79, 0x3a, 0x30, 0x12, 0x0b, 0x43,
  0x6f, 0x6e, 0x76, 0x5f, 0x5f, 0x32, 0x39, 0x33, 0x3a, 0x30, 0x1a, 0x09,
  0x43, 0x6f, 0x6e, 0x76, 0x5f, 0x5f, 0x32, 0x39, 0x33, 0x22, 0x04, 0x43,
  0x6f, 0x6e, 0x76, 0x2a, 0x12, 0x0a, 0x09, 0x64, 0x69, 0x6c, 0x61, 0x74,
  0x69, 0x6f, 0x6e, 0x73, 0x40, 0x01, 0x40, 0x01, 0xa0, 0x01, 0x07, 0x2a,
  0x10, 0x0a, 0x07, 0x73, 0x74, 0x72, 0x69, 0x64, 0x65, 0x73, 0x40, 0x01,
  0x40, 0x01, 0xa0, 0x01, 0x07, 0x2a, 0x15, 0x0a, 0x0c, 0x6b, 0x65, 0x72,
  0x6e, 0x65, 0x6c, 0x5f, 0x73, 0x68, 0x61, 0x70, 0x65, 0x40, 0x05, 0x40,
  0x05, 0xa0, 0x01, 0x07, 0x2a, 0x0c, 0x0a, 0x05, 0x67, 0x72, 0x6f, 0x75,
  0x70, 0x18, 0x60, 0xa0, 0x01, 0x02, 0x2a, 0x11, 0x0a, 0x04, 0x70, 0x61,
  0x64, 0x73, 0x40, 0x02, 0x40, 0x02, 0x40, 0x02, 0x40, 0x02, 0xa0, 0x01,
  0x07, 0x3a, 0x00, 0x0a, 0x39, 0x0a, 0x0b, 0x43, 0x6f, 0x6e, 0x76, 0x5f,
  0x5f, 0x32, 0x39, 0x33, 0x3a, 0x30, 0x0a, 0x13, 0x63, 0x6f, 0x6e, 0x73,
  0x74, 0x5f, 0x66, 0x6f, 0x6c, 0x64, 0x5f, 0x6f, 0x70, 0x74, 0x5f, 0x5f,
  0x34, 0x39, 0x31, 0x12, 0x08, 0x61, 0x64, 0x64, 0x5f, 0x31, 0x30, 0x3a,
  0x30, 0x1a, 0x06, 0x61, 0x64, 0x64, 0x5f, 0x31, 0x30, 0x22, 0x03, 0x41,
  0x64, 0x64, 0x0a, 0x4a, 0x0a, 0x08, 0x61, 0x64, 0x64, 0x5f, 0x31, 0x30,
  0x3a, 0x30, 0x0a, 0x10, 0x52, 0x65, 0x6c, 0x75, 0x36, 0x5f, 0x38, 0x5f,
  0x6d, 0x69, 0x6e, 0x5f, 0x5f, 0x31, 0x30, 0x39, 0x0a, 0x10, 0x52, 0x65,
  0x6c, 0x75, 0x36, 0x5f, 0x39, 0x5f, 0x6d, 0x61, 0x78, 0x5f, 0x5f, 0x31,
  0x32, 0x32, 0x12, 0x0a, 0x52, 0x65, 0x6c, 0x75, 0x36, 0x5f, 0x31, 0x30,
  0x3a, 0x30, 0x1a, 0x08, 0x52, 0x65, 0x6c, 0x75, 0x36, 0x5f, 0x31, 0x30,
  0x22, 0x04, 0x43, 0x6c, 0x69, 0x70, 0x0a, 0x2f, 0x0a, 0x0a, 0x6d, 0x75,
  0x6c, 0x5f, 0x31, 0x33, 0x2f, 0x79, 0x3a, 0x30, 0x0a, 0x0a, 0x52, 0x65,
  0x6c, 0x75, 0x36, 0x5f, 0x31, 0x30, 0x3a, 0x30, 0x12, 0x08, 0x6d, 0x75,
  0x6c, 0x5f, 0x32, 0x30, 0x3a, 0x30, 0x1a, 0x06, 0x6d, 0x75, 0x6c, 0x5f,
  0x32, 0x30, 0x22, 0x03, 0x4d, 0x75, 0x6c, 0x0a, 0x2e, 0x0a, 0x0b, 0x43,
  0x6f, 0x6e, 0x76, 0x5f, 0x5f, 0x32, 0x39, 0x33, 0x3a, 0x30, 0x0a, 0x08,
  0x6d, 0x75, 0x6c, 0x5f, 0x32, 0x30, 0x3a, 0x30, 0x12, 0x08, 0x6d, 0x75,
  0x6c, 0x5f, 0x32, 0x31, 0x3a, 0x30, 0x1a, 0x06, 0x6d, 0x75, 0x6c, 0x5f,
  0x32, 0x31, 0x22, 0x03, 0x4d, 0x75, 0x6c, 0x0a, 0x8c, 0x01, 0x0a, 0x08,
  0x6d, 0x75, 0x6c, 0x5f, 0x32, 0x31, 0x3a, 0x30, 0x12, 0x25, 0x61, 0x76,
  0x65, 0x72, 0x61, 0x67, 0x65, 0x5f, 0x70, 0x6f, 0x6f, 0x6c, 0x69, 0x6e,
  0x67, 0x32, 0x64, 0x5f, 0x35, 0x5f, 0x61, 0x76, 0x67, 0x70, 0x6f, 0x6f,
  0x6c, 0x2f, 0x41, 0x76, 0x67, 0x50, 0x6f, 0x6f, 0x6c, 0x3a, 0x30, 0x1a,
  0x23, 0x61, 0x76, 0x65, 0x72, 0x61, 0x67, 0x65, 0x5f, 0x70, 0x6f, 0x6f,
  0x6c, 0x69, 0x6e, 0x67, 0x32, 0x64, 0x5f, 0x35, 0x5f, 0x61, 0x76, 0x67,
  0x70, 0x6f, 0x6f, 0x6c, 0x2f, 0x41, 0x76, 0x67, 0x50, 0x6f, 0x6f, 0x6c,
  0x22, 0x0b, 0x41, 0x76, 0x65, 0x72, 0x61, 0x67, 0x65, 0x50, 0x6f, 0x6f,
  0x6c, 0x2a, 0x10, 0x0a, 0x07, 0x73, 0x74, 0x72, 0x69, 0x64, 0x65, 0x73,
  0x40, 0x10, 0x40, 0x10, 0xa0, 0x01, 0x07, 0x2a, 0x15, 0x0a, 0x0c, 0x6b,
  0x65, 0x72, 0x6e, 0x65, 0x6c, 0x5f, 0x73, 0x68, 0x61, 0x70, 0x65, 0x40,
  0x10, 0x40, 0x10, 0xa0, 0x01, 0x07, 0x0a, 0xa9, 0x01, 0x0a, 0x25, 0x61,
  0x76, 0x65, 0x72, 0x61, 0x67, 0x65, 0x5f, 0x70, 0x6f, 0x6f, 0x6c, 0x69,
  0x6e, 0x67, 0x32, 0x64, 0x5f, 0x35, 0x5f, 0x61, 0x76, 0x67, 0x70, 0x6f,
  0x6f, 0x6c, 0x2f, 0x41, 0x76, 0x67, 0x50, 0x6f, 0x6f, 0x6c, 0x3a, 0x30,
  0x0a, 0x12, 0x43, 0x6f, 0x6e, 0x76, 0x32, 0x44, 0x5f, 0x32, 0x37, 0x2f,
  0x66, 0x69, 0x6c, 0x74, 0x65, 0x72, 0x3a, 0x30, 0x0a, 0x0f, 0x63, 0x6f,
  0x6e, 0x76, 0x32, 0x64, 0x5f, 0x32, 0x36, 0x5f, 0x31, 0x2f, 0x79, 0x3a,
  0x30, 0x12, 0x0b, 0x43, 0x6f, 0x6e, 0x76, 0x5f, 0x5f, 0x32, 0x39, 0x36,
  0x3a, 0x30, 0x1a, 0x09, 0x43, 0x6f, 0x6e, 0x76, 0x5f, 0x5f, 0x32, 0x39,
  0x36, 0x22, 0x04, 0x43, 0x6f, 0x6e, 0x76, 0x2a, 0x12, 0x0a, 0x09, 0x64,
  0x69, 0x6c, 0x61, 0x74, 0x69, 0x6f, 0x6e, 0x73, 0x40, 0x01, 0x40, 0x01,
  0xa0, 0x01, 0x07, 0x2a, 0x10, 0x0a, 0x07, 0x73, 0x74, 0x72, 0x69, 0x64,
  0x65, 0x73, 0x40, 0x01, 0x40, 0x01, 0xa0, 0x01, 0x07, 0x2a, 0x15, 0x0a,
  0x0c, 0x6b, 0x65, 0x72, 0x6e, 0x65, 0x6c, 0x5f, 0x73, 0x68, 0x61, 0x70,
  0x65, 0x40, 0x01, 0x40, 0x01, 0xa0, 0x01, 0x07, 0x3a, 0x00, 0x0a, 0x29,
  0x0a, 0x0b, 0x43, 0x6f, 0x6e, 0x76, 0x5f, 0x5f, 0x32, 0x39, 0x36, 0x3a,
  0x30, 0x12, 0x0a, 0x72, 0x65, 0x5f, 0x6c, 0x75, 0x5f, 0x31, 0x31, 0x3a,
  0x30, 0x1a, 0x08, 0x72, 0x65, 0x5f, 0x6c, 0x75, 0x5f, 0x31, 0x31, 0x22,
  0x04, 0x52, 0x65, 0x6c, 0x75, 0x0a, 0x8e, 0x01, 0x0a, 0x0a, 0x72, 0x65,
  0x5f, 0x6c, 0x75, 0x5f, 0x31, 0x31, 0x3a, 0x30, 0x0a, 0x12, 0x43, 0x6f,
  0x6e, 0x76, 0x32, 0x44, 0x5f, 0x32, 0x38, 0x2f, 0x66, 0x69, 0x6c, 0x74,
  0x65, 0x72, 0x3a, 0x30, 0x0a, 0x0f, 0x63, 0x6f, 0x6e, 0x76, 0x32, 0x64,
  0x5f, 0x32, 0x37, 0x5f, 0x31, 0x2f, 0x79, 0x3a, 0x30, 0x12, 0x0b, 0x43,
  0x6f, 0x6e, 0x76, 0x5f, 0x5f, 0x32, 0x39, 0x37, 0x3a, 0x30, 0x1a, 0x09,
  0x43, 0x6f, 0x6e, 0x76, 0x5f, 0x5f, 0x32, 0x39, 0x37, 0x22, 0x04, 0x43,
  0x6f, 0x6e, 0x76, 0x2a, 0x12, 0x0a, 0x09, 0x64, 0x69, 0x6c, 0x61, 0x74,
  0x69, 0x6f, 0x6e, 0x73, 0x40, 0x01, 0x40, 0x01, 0xa0, 0x01, 0x07, 0x2a,
  0x10, 0x0a, 0x07, 0x73, 0x74, 0x72, 0x69, 0x64, 0x65, 0x73, 0x40, 0x01,
  0x40, 0x01, 0xa0, 0x01, 0x07, 0x2a, 0x15, 0x0a, 0x0c, 0x6b, 0x65, 0x72,
  0x6e, 0x65, 0x6c, 0x5f, 0x73, 0x68, 0x61, 0x70, 0x65, 0x40, 0x01, 0x40,
  0x01, 0xa0, 0x01, 0x07, 0x3a, 0x00, 0x0a, 0x34, 0x0a, 0x0b, 0x43, 0x6f,
  0x6e, 0x76, 0x5f, 0x5f, 0x32, 0x39, 0x37, 0x3a, 0x30, 0x12, 0x0e, 0x61,
  0x63, 0x74, 0x69, 0x76, 0x61, 0x74, 0x69, 0x6f, 0x6e, 0x5f, 0x35, 0x3a,
  0x30, 0x1a, 0x0c, 0x61, 0x63, 0x74, 0x69, 0x76, 0x61, 0x74, 0x69, 0x6f,
  0x6e, 0x5f, 0x35, 0x22, 0x07, 0x53, 0x69, 0x67, 0x6d, 0x6f, 0x69, 0x64,
  0x0a, 0x39, 0x0a, 0x08, 0x6d, 0x75, 0x6c, 0x5f, 0x32, 0x31, 0x3a, 0x30,
  0x0a, 0x0e, 0x61, 0x63, 0x74, 0x69, 0x76, 0x61, 0x74, 0x69, 0x6f, 0x6e,
  0x5f, 0x35, 0x3a, 0x30, 0x12, 0x0c, 0x6d, 0x75, 0x6c, 0x74, 0x69, 0x70,
  0x6c, 0x79, 0x5f, 0x35, 0x3a, 0x30, 0x1a, 0x0a, 0x6d, 0x75, 0x6c, 0x74,
  0x69, 0x70, 0x6c, 0x79, 0x5f, 0x35, 0x22, 0x03, 0x4d, 0x75, 0x6c, 0x0a,
  0xa3, 0x01, 0x0a, 0x0c, 0x6d, 0x75, 0x6c, 0x74, 0x69, 0x70, 0x6c, 0x79,
  0x5f, 0x35, 0x3a, 0x30, 0x0a, 0x12, 0x43, 0x6f, 0x6e, 0x76, 0x32, 0x44,
  0x5f, 0x32, 0x39, 0x2f, 0x66, 0x69, 0x6c, 0x74, 0x65, 0x72, 0x3a, 0x30,
  0x0a, 0x0f, 0x63, 0x6f, 0x6e, 0x76, 0x32, 0x64, 0x5f, 0x32, 0x38, 0x5f,
  0x31, 0x2f, 0x79, 0x3a, 0x30, 0x12, 0x0b, 0x43, 0x6f, 0x6e, 0x76, 0x5f,
  0x5f, 0x32, 0x39, 0x38, 0x3a, 0x30, 0x1a, 0x09, 0x43, 0x6f, 0x6e, 0x76,
  0x5f, 0x5f, 0x32, 0x39, 0x38, 0x22, 0x04, 0x43, 0x6f, 0x6e, 0x76, 0x2a,
  0x12, 0x0a, 0x09, 0x64, 0x69, 0x6c, 0x61, 0x74, 0x69, 0x6f, 0x6e, 0x73,
  0x40, 0x01, 0x40, 0x01, 0xa0, 0x01, 0x07, 0x2a, 0x10, 0x0a, 0x07, 0x73,
  0x74, 0x72, 0x69, 0x64, 0x65, 0x73, 0x40, 0x01, 0x40, 0x01, 0xa0, 0x01,
  0x07, 0x2a, 0x15, 0x0a, 0x0c, 0x6b, 0x65, 0x72, 0x6e, 0x65, 0x6c, 0x5f,
  0x73, 0x68, 0x61, 0x70, 0x65, 0x40, 0x01, 0x40, 0x01, 0xa0, 0x01, 0x07,
  0x2a, 0x11, 0x0a, 0x04, 0x70, 0x61, 0x64, 0x73, 0x40, 0x00, 0x40, 0x00,
  0x40, 0x00, 0x40, 0x00, 0xa0, 0x01, 0x07, 0x3a, 0x00, 0x0a, 0x5b, 0x0a,
  0x0b, 0x43, 0x6f, 0x6e, 0x76, 0x5f, 0x5f, 0x32, 0x39, 0x38, 0x3a, 0x30,
  0x0a, 0x17, 0x61, 0x64, 0x64, 0x5f, 0x33, 0x5f, 0x5f, 0x78, 0x65, 0x6e,
  0x6f, 0x5f, 0x63, 0x6f, 0x6d, 0x70, 0x61, 0x74, 0x5f, 0x5f, 0x31, 0x3a,
  0x30, 0x12, 0x17, 0x61, 0x64, 0x64, 0x5f, 0x34, 0x5f, 0x5f, 0x78, 0x65,
  0x6e, 0x6f, 0x5f, 0x63, 0x6f, 0x6d, 0x70, 0x61, 0x74, 0x5f, 0x5f, 0x31,
  0x3a, 0x30, 0x1a, 0x15, 0x61, 0x64, 0x64, 0x5f, 0x34, 0x5f, 0x5f, 0x78,
  0x65, 0x6e, 0x6f, 0x5f, 0x63, 0x6f, 0x6d, 0x70, 0x61, 0x74, 0x5f, 0x5f,
  0x31, 0x22, 0x03, 0x41, 0x64, 0x64, 0x0a, 0x9b, 0x01, 0x0a, 0x17, 0x61,
  0x64, 0x64, 0x5f, 0x34, 0x5f, 0x5f, 0x78, 0x65, 0x6e, 0x6f, 0x5f, 0x63,
  0x6f, 0x6d, 0x70, 0x61, 0x74, 0x5f, 0x5f, 0x31, 0x3a, 0x30, 0x12, 0x25,
  0x61, 0x76, 0x65, 0x72, 0x61, 0x67, 0x65, 0x5f, 0x70, 0x6f, 0x6f, 0x6c,
  0x69, 0x6e, 0x67, 0x32, 0x64, 0x5f, 0x36, 0x5f, 0x61, 0x76, 0x67, 0x70,
  0x6f, 0x6f, 0x6c, 0x2f, 0x41, 0x76, 0x67, 0x50, 0x6f, 0x6f, 0x6c, 0x3a,
  0x30, 0x1a, 0x23, 0x61, 0x76, 0x65, 0x72, 0x61, 0x67, 0x65, 0x5f, 0x70,
  0x6f, 0x6f, 0x6c, 0x69, 0x6e, 0x67, 0x32, 0x64, 0x5f, 0x36, 0x5f, 0x61,
  0x76, 0x67, 0x70, 0x6f, 0x6f, 0x6c, 0x2f, 0x41, 0x76, 0x67, 0x50, 0x6f,
  0x6f, 0x6c, 0x22, 0x0b, 0x41, 0x76, 0x65, 0x72, 0x61, 0x67, 0x65, 0x50,
  0x6f, 0x6f, 0x6c, 0x2a, 0x10, 0x0a, 0x07, 0x73, 0x74, 0x72, 0x69, 0x64,
  0x65, 0x73, 0x40, 0x10, 0x40, 0x10, 0xa0, 0x01, 0x07, 0x2a, 0x15, 0x0a,
  0x0c, 0x6b, 0x65, 0x72, 0x6e, 0x65, 0x6c, 0x5f, 0x73, 0x68, 0x61, 0x70,
  0x65, 0x40, 0x10, 0x40, 0x10, 0xa0, 0x01, 0x07, 0x0a, 0xa9, 0x01, 0x0a,
  0x25, 0x61, 0x76, 0x65, 0x72, 0x61, 0x67, 0x65, 0x5f, 0x70, 0x6f, 0x6f,
  0x6c, 0x69, 0x6e, 0x67, 0x32, 0x64, 0x5f, 0x36, 0x5f, 0x61, 0x76, 0x67,
  0x70, 0x6f, 0x6f, 0x6c, 0x2f, 0x41, 0x76, 0x67, 0x50, 0x6f, 0x6f, 0x6c,
  0x3a, 0x30, 0x0a, 0x12, 0x43, 0x6f, 0x6e, 0x76, 0x32, 0x44, 0x5f, 0x33,
  0x31, 0x2f, 0x66, 0x69, 0x6c, 0x74, 0x65, 0x72, 0x3a, 0x30, 0x0a, 0x0f,
  0x63, 0x6f, 0x6e, 0x76, 0x32, 0x64, 0x5f, 0x33, 0x30, 0x5f, 0x31, 0x2f,
  0x79, 0x3a, 0x30, 0x12, 0x0b, 0x43, 0x6f, 0x6e, 0x76, 0x5f, 0x5f, 0x32,
  0x39, 0x39, 0x3a, 0x30, 0x1a, 0x09, 0x43, 0x6f, 0x6e, 0x76, 0x5f, 0x5f,
  0x32, 0x39, 0x39, 0x22, 0x04, 0x43, 0x6f, 0x6e, 0x76, 0x2a, 0x12, 0x0a,
  0x09, 0x64, 0x69, 0x6c, 0x61, 0x74, 0x69, 0x6f, 0x6e, 0x73, 0x40, 0x01,
  0x40, 0x01, 0xa0, 0x01, 0x07, 0x2a, 0x10, 0x0a, 0x07, 0x73, 0x74, 0x72,
  0x69, 0x64, 0x65, 0x73, 0x40, 0x01, 0x40, 0x01, 0xa0, 0x01, 0x07, 0x2a,
  0x15, 0x0a, 0x0c, 0x6b, 0x65, 0x72, 0x6e, 0x65, 0x6c, 0x5f, 0x73, 0x68,
  0x61, 0x70, 0x65, 0x40, 0x01, 0x40, 0x01, 0xa0, 0x01, 0x07, 0x3a, 0x00,
  0x0a, 0x34, 0x0a, 0x0b, 0x43, 0x6f, 0x6e, 0x76, 0x5f, 0x5f, 0x32, 0x39,
  0x39, 0x3a, 0x30, 0x12, 0x0e, 0x61, 0x63, 0x74, 0x69, 0x76, 0x61, 0x74,
  0x69, 0x6f, 0x6e, 0x5f, 0x36, 0x3a, 0x30, 0x1a, 0x0c, 0x61, 0x63, 0x74,
  0x69, 0x76, 0x61, 0x74, 0x69, 0x6f, 0x6e, 0x5f, 0x36, 0x22, 0x07, 0x53,
  0x69, 0x67, 0x6d, 0x6f, 0x69, 0x64, 0x0a, 0x9b, 0x01, 0x0a, 0x17, 0x61,
  0x64, 0x64, 0x5f, 0x34, 0x5f, 0x5f, 0x78, 0x65, 0x6e, 0x6f, 0x5f, 0x63,
  0x6f, 0x6d, 0x70, 0x61, 0x74, 0x5f, 0x5f, 0x31, 0x3a, 0x30, 0x0a, 0x12,
  0x43, 0x6f, 0x6e, 0x76, 0x32, 0x44, 0x5f, 0x33, 0x30, 0x2f, 0x66, 0x69,
  0x6c, 0x74, 0x65, 0x72, 0x3a, 0x30, 0x0a, 0x0f, 0x63, 0x6f, 0x6e, 0x76,
  0x32, 0x64, 0x5f, 0x32, 0x39, 0x5f, 0x31, 0x2f, 0x79, 0x3a, 0x30, 0x12,
  0x0b, 0x43, 0x6f, 0x6e, 0x76, 0x5f, 0x5f, 0x33, 0x30, 0x30, 0x3a, 0x30,
  0x1a, 0x09, 0x43, 0x6f, 0x6e, 0x76, 0x5f, 0x5f, 0x33, 0x30, 0x30, 0x22,
  0x04, 0x43, 0x6f, 0x6e, 0x76, 0x2a, 0x12, 0x0a, 0x09, 0x64, 0x69, 0x6c,
  0x61, 0x74, 0x69, 0x6f, 0x6e, 0x73, 0x40, 0x01, 0x40, 0x01, 0xa0, 0x01,
  0x07, 0x2a, 0x10, 0x0a, 0x07, 0x73, 0x74, 0x72, 0x69, 0x64, 0x65, 0x73,
  0x40, 0x01, 0x40, 0x01, 0xa0, 0x01, 0x07, 0x2a, 0x15, 0x0a, 0x0c, 0x6b,
  0x65, 0x72, 0x6e, 0x65, 0x6c, 0x5f, 0x73, 0x68, 0x61, 0x70, 0x65, 0x40,
  0x01, 0x40, 0x01, 0xa0, 0x01, 0x07, 0x3a, 0x00, 0x0a, 0x29, 0x0a, 0x0b,
  0x43, 0x6f, 0x6e, 0x76, 0x5f, 0x5f, 0x33, 0x30, 0x30, 0x3a, 0x30, 0x12,
  0x0a, 0x72, 0x65, 0x5f, 0x6c, 0x75, 0x5f, 0x31, 0x32, 0x3a, 0x30, 0x1a,
  0x08, 0x72, 0x65, 0x5f, 0x6c, 0x75, 0x5f, 0x31, 0x32, 0x22, 0x04, 0x52,
  0x65, 0x6c, 0x75, 0x0a, 0x3b, 0x0a, 0x0a, 0x72, 0x65, 0x5f, 0x6c, 0x75,
  0x5f, 0x31, 0x32, 0x3a, 0x30, 0x0a, 0x0e, 0x61, 0x63, 0x74, 0x69, 0x76,
  0x61, 0x74, 0x69, 0x6f, 0x6e, 0x5f, 0x36, 0x3a, 0x30, 0x12, 0x0c, 0x6d,
  0x75, 0x6c, 0x74, 0x69, 0x70, 0x6c, 0x79, 0x5f, 0x36, 0x3a, 0x30, 0x1a,
  0x0a, 0x6d, 0x75, 0x6c, 0x74, 0x69, 0x70, 0x6c, 0x79, 0x5f, 0x36, 0x22,
  0x03, 0x4d, 0x75, 0x6c, 0x0a, 0x31, 0x0a, 0x0c, 0x6d, 0x75, 0x6c, 0x74,
  0x69, 0x70, 0x6c, 0x79, 0x5f, 0x36, 0x3a, 0x30, 0x12, 0x0c, 0x53, 0x68,
  0x61, 0x70, 0x65, 0x5f, 0x5f, 0x31, 0x34, 0x39, 0x3a, 0x30, 0x1a, 0x0a,
  0x53, 0x68, 0x61, 0x70, 0x65, 0x5f, 0x5f, 0x31, 0x34, 0x39, 0x22, 0x05,
  0x53, 0x68, 0x61, 0x70, 0x65, 0x3a, 0x00, 0x0a, 0x52, 0x0a, 0x0c, 0x53,
  0x68, 0x61, 0x70, 0x65, 0x5f, 0x5f, 0x31, 0x34, 0x39, 0x3a, 0x30, 0x0a,
  0x0f, 0x63, 0x6f, 0x6e, 0x73, 0x74, 0x5f, 0x7a, 0x65, 0x72, 0x6f, 0x5f,
  0x5f, 0x31, 0x37, 0x30, 0x0a, 0x0e, 0x63, 0x6f, 0x6e, 0x73, 0x74, 0x5f,
  0x74, 0x77, 0x6f, 0x5f, 0x5f, 0x31, 0x39, 0x36, 0x12, 0x0c, 0x53, 0x6c,
  0x69, 0x63, 0x65, 0x5f, 0x5f, 0x31, 0x35, 0x30, 0x3a, 0x30, 0x1a, 0x0a,
  0x53, 0x6c, 0x69, 0x63, 0x65, 0x5f, 0x5f, 0x31, 0x35, 0x30, 0x22, 0x05,
  0x53, 0x6c, 0x69, 0x63, 0x65, 0x3a, 0x00, 0x0a, 0x56, 0x0a, 0x0c, 0x53,
  0x6c, 0x69, 0x63, 0x65, 0x5f, 0x5f, 0x31, 0x35, 0x30, 0x3a, 0x30, 0x0a,
  0x13, 0x63, 0x6f, 0x6e, 0x73, 0x74, 0x5f, 0x66, 0x6f, 0x6c, 0x64, 0x5f,
  0x6f, 0x70, 0x74, 0x5f, 0x5f, 0x34, 0x38, 0x36, 0x12, 0x0d, 0x43, 0x6f,
  0x6e, 0x63, 0x61, 0x74, 0x5f, 0x5f, 0x31, 0x35, 0x32, 0x3a, 0x30, 0x1a,
  0x0b, 0x43, 0x6f, 0x6e, 0x63, 0x61, 0x74, 0x5f, 0x5f, 0x31, 0x35, 0x32,
  0x22, 0x06, 0x43, 0x6f, 0x6e, 0x63, 0x61, 0x74, 0x2a, 0x0b, 0x0a, 0x04,
  0x61, 0x78, 0x69, 0x73, 0x18, 0x00, 0xa0, 0x01, 0x02, 0x3a, 0x00, 0x0a,
  0xcd, 0x01, 0x0a, 0x0c, 0x6d, 0x75, 0x6c, 0x74, 0x69, 0x70, 0x6c, 0x79,
  0x5f, 0x36, 0x3a, 0x30, 0x0a, 0x08, 0x72, 0x6f, 0x69, 0x5f, 0x5f, 0x31,
  0x34, 0x34, 0x0a, 0x08, 0x72, 0x6f, 0x69, 0x5f, 0x5f, 0x31, 0x34, 0x34,
  0x0a, 0x0d, 0x43, 0x6f, 0x6e, 0x63, 0x61, 0x74, 0x5f, 0x5f, 0x31, 0x35,
  0x32, 0x3a, 0x30, 0x12, 0x0d, 0x52, 0x65, 0x73, 0x69, 0x7a, 0x65, 0x5f,
  0x5f, 0x31, 0x35, 0x33, 0x3a, 0x30, 0x1a, 0x0b, 0x52, 0x65, 0x73, 0x69,
  0x7a, 0x65, 0x5f, 0x5f, 0x31, 0x35, 0x33, 0x22, 0x06, 0x52, 0x65, 0x73,
  0x69, 0x7a, 0x65, 0x2a, 0x2f, 0x0a, 0x1e, 0x63, 0x6f, 0x6f, 0x72, 0x64,
  0x69, 0x6e, 0x61, 0x74, 0x65, 0x5f, 0x74, 0x72, 0x61, 0x6e, 0x73, 0x66,
  0x6f, 0x72, 0x6d, 0x61, 0x74, 0x69, 0x6f, 0x6e, 0x5f, 0x6d, 0x6f, 0x64,
  0x65, 0x22, 0x0a, 0x68, 0x61, 0x6c, 0x66, 0x5f, 0x70, 0x69, 0x78, 0x65,
  0x6c, 0xa0, 0x01, 0x03, 0x2a, 0x16, 0x0a, 0x0f, 0x65, 0x78, 0x63, 0x6c,
  0x75, 0x64, 0x65, 0x5f, 0x6f, 0x75, 0x74, 0x73, 0x69, 0x64, 0x65, 0x18,
  0x00, 0xa0, 0x01, 0x02, 0x2a, 0x11, 0x0a, 0x04, 0x6d, 0x6f, 0x64, 0x65,
  0x22, 0x06, 0x6c, 0x69, 0x6e, 0x65, 0x61, 0x72, 0xa0, 0x01, 0x03, 0x2a,
  0x18, 0x0a, 0x0c, 0x6e, 0x65, 0x61, 0x72, 0x65, 0x73, 0x74, 0x5f, 0x6d,
  0x6f, 0x64, 0x65, 0x22, 0x05, 0x66, 0x6c, 0x6f, 0x6f, 0x72, 0xa0, 0x01,
  0x03, 0x3a, 0x00, 0x0a, 0x91, 0x01, 0x0a, 0x0d, 0x52, 0x65, 0x73, 0x69,
  0x7a, 0x65, 0x5f, 0x5f, 0x31, 0x35, 0x33, 0x3a, 0x30, 0x0a, 0x12, 0x43,
  0x6f, 0x6e, 0x76, 0x32, 0x44, 0x5f, 0x33, 0x32, 0x2f, 0x66, 0x69, 0x6c,
  0x74, 0x65, 0x72, 0x3a, 0x30, 0x0a, 0x0f, 0x63, 0x6f, 0x6e, 0x76, 0x32,
  0x64, 0x5f, 0x33, 0x31, 0x5f, 0x31, 0x2f, 0x79, 0x3a, 0x30, 0x12, 0x0b,
  0x43, 0x6f, 0x6e, 0x76, 0x5f, 0x5f, 0x33, 0x30, 0x31, 0x3a, 0x30, 0x1a,
  0x09, 0x43, 0x6f, 0x6e, 0x76, 0x5f, 0x5f, 0x33, 0x30, 0x31, 0x22, 0x04,
  0x43, 0x6f, 0x6e, 0x76, 0x2a, 0x12, 0x0a, 0x09, 0x64, 0x69, 0x6c, 0x61,
  0x74, 0x69, 0x6f, 0x6e, 0x73, 0x40, 0x01, 0x40, 0x01, 0xa0, 0x01, 0x07,
  0x2a, 0x10, 0x0a, 0x07, 0x73, 0x74, 0x72, 0x69, 0x64, 0x65, 0x73, 0x40,
  0x01, 0x40, 0x01, 0xa0, 0x01, 0x07, 0x2a, 0x15, 0x0a, 0x0c, 0x6b, 0x65,
  0x72, 0x6e, 0x65, 0x6c, 0x5f, 0x73, 0x68, 0x61, 0x70, 0x65, 0x40, 0x01,
  0x40, 0x01, 0xa0, 0x01, 0x07, 0x3a, 0x00, 0x0a, 0x59, 0x0a, 0x15, 0x61,
  0x64, 0x64, 0x5f, 0x5f, 0x78, 0x65, 0x6e, 0x6f, 0x5f, 0x63, 0x6f, 0x6d,
  0x70, 0x61, 0x74, 0x5f, 0x5f, 0x31, 0x3a, 0x30, 0x0a, 0x0b, 0x43, 0x6f,
  0x6e, 0x76, 0x5f, 0x5f, 0x33, 0x30, 0x31, 0x3a, 0x30, 0x12, 0x17, 0x61,
  0x64, 0x64, 0x5f, 0x35, 0x5f, 0x5f, 0x78, 0x65, 0x6e, 0x6f, 0x5f, 0x63,
  0x6f, 0x6d, 0x70, 0x61, 0x74, 0x5f, 0x5f, 0x31, 0x3a, 0x30, 0x1a, 0x15,
  0x61, 0x64, 0x64, 0x5f, 0x35, 0x5f, 0x5f, 0x78, 0x65, 0x6e, 0x6f, 0x5f,
  0x63, 0x6f, 0x6d, 0x70, 0x61, 0x74, 0x5f, 0x5f, 0x31, 0x22, 0x03, 0x41,
  0x64, 0x64, 0x0a, 0x9b, 0x01, 0x0a, 0x17, 0x61, 0x64, 0x64, 0x5f, 0x35,
  0x5f, 0x5f, 0x78, 0x65, 0x6e, 0x6f, 0x5f, 0x63, 0x6f, 0x6d, 0x70, 0x61,
  0x74, 0x5f, 0x5f, 0x31, 0x3a, 0x30, 0x12, 0x25, 0x61, 0x76, 0x65, 0x72,
  0x61, 0x67, 0x65, 0x5f, 0x70, 0x6f, 0x6f, 0x6c, 0x69, 0x6e, 0x67, 0x32,
  0x64, 0x5f, 0x37, 0x5f, 0x61, 0x76, 0x67, 0x70, 0x6f, 0x6f, 0x6c, 0x2f,
  0x41, 0x76, 0x67, 0x50, 0x6f, 0x6f, 0x6c, 0x3a, 0x30, 0x1a, 0x23, 0x61,
  0x76, 0x65, 0x72, 0x61, 0x67, 0x65, 0x5f, 0x70, 0x6f, 0x6f, 0x6c, 0x69,
  0x6e, 0x67, 0x32, 0x64, 0x5f, 0x37, 0x5f, 0x61, 0x76, 0x67, 0x70, 0x6f,
  0x6f, 0x6c, 0x2f, 0x41, 0x76, 0x67, 0x50, 0x6f, 0x6f, 0x6c, 0x22, 0x0b,
  0x41, 0x76, 0x65, 0x72, 0x61, 0x67, 0x65, 0x50, 0x6f, 0x6f, 0x6c, 0x2a,
  0x10, 0x0a, 0x07, 0x73, 0x74, 0x72, 0x69, 0x64, 0x65, 0x73, 0x40, 0x20,
  0x40, 0x20, 0xa0, 0x01, 0x07, 0x2a, 0x15, 0x0a, 0x0c, 0x6b, 0x65, 0x72,
  0x6e, 0x65, 0x6c, 0x5f, 0x73, 0x68, 0x61, 0x70, 0x65, 0x40, 0x20, 0x40,
  0x20, 0xa0, 0x01, 0x07, 0x0a, 0xa9, 0x01, 0x0a, 0x25, 0x61, 0x76, 0x65,
  0x72, 0x61, 0x67, 0x65, 0x5f, 0x70, 0x6f, 0x6f, 0x6c, 0x69, 0x6e, 0x67,
  0x32, 0x64, 0x5f, 0x37, 0x5f, 0x61, 0x76, 0x67, 0x70, 0x6f, 0x6f, 0x6c,
  0x2f, 0x41, 0x76, 0x67, 0x50, 0x6f, 0x6f, 0x6c, 0x3a, 0x30, 0x0a, 0x12,
  0x43, 0x6f, 0x6e, 0x76, 0x32, 0x44, 0x5f, 0x33, 0x33, 0x2f, 0x66, 0x69,
  0x6c, 0x74, 0x65, 0x72, 0x3a, 0x30, 0x0a, 0x0f, 0x63, 0x6f, 0x6e, 0x76,
  0x32, 0x64, 0x5f, 0x33, 0x32, 0x5f, 0x31, 0x2f, 0x79, 0x3a, 0x30, 0x12,
  0x0b, 0x43, 0x6f, 0x6e, 0x76, 0x5f, 0x5f, 0x33, 0x31, 0x34, 0x3a, 0x30,
  0x1a, 0x09, 0x43, 0x6f, 0x6e, 0x76, 0x5f, 0x5f, 0x33, 0x31, 0x34, 0x22,
  0x04, 0x43, 0x6f, 0x6e, 0x76, 0x2a, 0x12, 0x0a, 0x09, 0x64, 0x69, 0x6c,
  0x61, 0x74, 0x69, 0x6f, 0x6e, 0x73, 0x40, 0x01, 0x40, 0x01, 0xa0, 0x01,
  0x07, 0x2a, 0x10, 0x0a, 0x07, 0x73, 0x74, 0x72, 0x69, 0x64, 0x65, 0x73,
  0x40, 0x01, 0x40, 0x01, 0xa0, 0x01, 0x07, 0x2a, 0x15, 0x0a, 0x0c, 0x6b,
  0x65, 0x72, 0x6e, 0x65, 0x6c, 0x5f, 0x73, 0x68, 0x61, 0x70, 0x65, 0x40,
  0x01, 0x40, 0x01, 0xa0, 0x01, 0x07, 0x3a, 0x00, 0x0a, 0x29, 0x0a, 0x0b,
  0x43, 0x6f, 0x6e, 0x76, 0x5f, 0x5f, 0x33, 0x31, 0x34, 0x3a, 0x30, 0x12,
  0x0a, 0x72, 0x65, 0x5f, 0x6c, 0x75, 0x5f, 0x31, 0x33, 0x3a, 0x30, 0x1a,
  0x08, 0x72, 0x65, 0x5f, 0x6c, 0x75, 0x5f, 0x31, 0x33, 0x22, 0x04, 0x52,
  0x65, 0x6c, 0x75, 0x0a, 0x8e, 0x01, 0x0a, 0x0a, 0x72, 0x65, 0x5f, 0x6c,
  0x75, 0x5f, 0x31, 0x33, 0x3a, 0x30, 0x0a, 0x12, 0x43, 0x6f, 0x6e, 0x76,
  0x32, 0x44, 0x5f, 0x33, 0x34, 0x2f, 0x66, 0x69, 0x6c, 0x74, 0x65, 0x72,
  0x3a, 0x30, 0x0a, 0x0f, 0x63, 0x6f, 0x6e, 0x76, 0x32, 0x64, 0x5f, 0x33,
  0x33, 0x5f, 0x31, 0x2f, 0x79, 0x3a, 0x30, 0x12, 0x0b, 0x43, 0x6f, 0x6e,
  0x76, 0x5f, 0x5f, 0x33, 0x31, 0x35, 0x3a, 0x30, 0x1a, 0x09, 0x43, 0x6f,
  0x6e, 0x76, 0x5f, 0x5f, 0x33, 0x31, 0x35, 0x22, 0x04, 0x43, 0x6f, 0x6e,
  0x76, 0x2a, 0x12, 0x0a, 0x09, 0x64, 0x69, 0x6c, 0x61, 0x74, 0x69, 0x6f,
  0x6e, 0x73, 0x40, 0x01, 0x40, 0x01, 0xa0, 0x01, 0x07, 0x2a, 0x10, 0x0a,
  0x07, 0x73, 0x74, 0x72, 0x69, 0x64, 0x65, 0x73, 0x40, 0x01, 0x40, 0x01,
  0xa0, 0x01, 0x07, 0x2a, 0x15, 0x0a, 0x0c, 0x6b, 0x65, 0x72, 0x6e, 0x65,
  0x6c, 0x5f, 0x73, 0x68, 0x61, 0x70, 0x65, 0x40, 0x01, 0x40, 0x01, 0xa0,
  0x01, 0x07, 0x3a, 0x00, 0x0a, 0x34, 0x0a, 0x0b, 0x43, 0x6f, 0x6e, 0x76,
  0x5f, 0x5f, 0x33, 0x31, 0x35, 0x3a, 0x30, 0x12, 0x0e, 0x61, 0x63, 0x74,
  0x69, 0x76, 0x61, 0x74, 0x69, 0x6f, 0x6e, 0x5f, 0x37, 0x3a, 0x30, 0x1a,
  0x0c, 0x61, 0x63, 0x74, 0x69, 0x76, 0x61, 0x74, 0x69, 0x6f, 0x6e, 0x5f,
  0x37, 0x22, 0x07, 0x53, 0x69, 0x67, 0x6d, 0x6f, 0x69, 0x64, 0x0a, 0x46,
  0x0a, 0x15, 0x61, 0x64, 0x64, 0x5f, 0x5f, 0x78, 0x65, 0x6e, 0x6f, 0x5f,
  0x63, 0x6f, 0x6d, 0x70, 0x61, 0x74, 0x5f, 0x5f, 0x31, 0x3a, 0x30, 0x0a,
  0x0e, 0x61, 0x63, 0x74, 0x69, 0x76, 0x61, 0x74, 0x69, 0x6f, 0x6e, 0x5f,
  0x37, 0x3a, 0x30, 0x12, 0x0c, 0x6d, 0x75, 0x6c, 0x74, 0x69, 0x70, 0x6c,
  0x79, 0x5f, 0x37, 0x3a, 0x30, 0x1a, 0x0a, 0x6d, 0x75, 0x6c, 0x74, 0x69,
  0x70, 0x6c, 0x79, 0x5f, 0x37, 0x22, 0x03, 0x4d, 0x75, 0x6c, 0x0a, 0x50,
  0x0a, 0x0c, 0x6d, 0x75, 0x6c, 0x74, 0x69, 0x70, 0x6c, 0x79, 0x5f, 0x37,
  0x3a, 0x30, 0x0a, 0x0b, 0x43, 0x6f, 0x6e, 0x76, 0x5f, 0x5f, 0x33, 0x30,
  0x31, 0x3a, 0x30, 0x12, 0x17, 0x61, 0x64, 0x64, 0x5f, 0x36, 0x5f, 0x5f,
  0x78, 0x65, 0x6e, 0x6f, 0x5f, 0x63, 0x6f, 0x6d, 0x70, 0x61, 0x74, 0x5f,
  0x5f, 0x31, 0x3a, 0x30, 0x1a, 0x15, 0x61, 0x64, 0x64, 0x5f, 0x36, 0x5f,
  0x5f, 0x78, 0x65, 0x6e, 0x6f, 0x5f, 0x63, 0x6f, 0x6d, 0x70, 0x61, 0x74,
  0x5f, 0x5f, 0x31, 0x22, 0x03, 0x41, 0x64, 0x64, 0x0a, 0x9b, 0x01, 0x0a,
  0x17, 0x61, 0x64, 0x64, 0x5f, 0x36, 0x5f, 0x5f, 0x78, 0x65, 0x6e, 0x6f,
  0x5f, 0x63, 0x6f, 0x6d, 0x70, 0x61, 0x74, 0x5f, 0x5f, 0x31, 0x3a, 0x30,
  0x0a, 0x12, 0x43, 0x6f, 0x6e, 0x76, 0x32, 0x44, 0x5f, 0x33, 0x35, 0x2f,
  0x66, 0x69, 0x6c, 0x74, 0x65, 0x72, 0x3a, 0x30, 0x0a, 0x0f, 0x63, 0x6f,
  0x6e, 0x76, 0x32, 0x64, 0x5f, 0x33, 0x34, 0x5f, 0x31, 0x2f, 0x79, 0x3a,
  0x30, 0x12, 0x0b, 0x43, 0x6f, 0x6e, 0x76, 0x5f, 0x5f, 0x33, 0x31, 0x36,
  0x3a, 0x30, 0x1a, 0x09, 0x43, 0x6f, 0x6e, 0x76, 0x5f, 0x5f, 0x33, 0x31,
  0x36, 0x22, 0x04, 0x43, 0x6f, 0x6e, 0x76, 0x2a, 0x12, 0x0a, 0x09, 0x64,
  0x69, 0x6c, 0x61, 0x74, 0x69, 0x6f, 0x6e, 0x73, 0x40, 0x01, 0x40, 0x01,
  0xa0, 0x01, 0x07, 0x2a, 0x10, 0x0a, 0x07, 0x73, 0x74, 0x72, 0x69, 0x64,
  0x65, 0x73, 0x40, 0x01, 0x40, 0x01, 0xa0, 0x01, 0x07, 0x2a, 0x15, 0x0a,
  0x0c, 0x6b, 0x65, 0x72, 0x6e, 0x65, 0x6c, 0x5f, 0x73, 0x68, 0x61, 0x70,
  0x65, 0x40, 0x01, 0x40, 0x01, 0xa0, 0x01, 0x07, 0x3a, 0x00, 0x0a, 0x29,
  0x0a, 0x0b, 0x43, 0x6f, 0x6e, 0x76, 0x5f, 0x5f, 0x33, 0x31, 0x36, 0x3a,
  0x30, 0x12, 0x0a, 0x72, 0x65, 0x5f, 0x6c, 0x75, 0x5f, 0x31, 0x34, 0x3a,
  0x30, 0x1a, 0x08, 0x72, 0x65, 0x5f, 0x6c, 0x75, 0x5f, 0x31, 0x34, 0x22,
  0x04, 0x52, 0x65, 0x6c, 0x75, 0x0a, 0xb7, 0x01, 0x0a, 0x0a, 0x72, 0x65,
  0x5f, 0x6c, 0x75, 0x5f, 0x31, 0x34, 0x3a, 0x30, 0x0a, 0x13, 0x63, 0x6f,
  0x6e, 0x73, 0x74, 0x5f, 0x66, 0x6f, 0x6c, 0x64, 0x5f, 0x6f, 0x70, 0x74,
  0x5f, 0x5f, 0x34, 0x38, 0x30, 0x0a, 0x16, 0x64, 0x65, 0x70, 0x74, 0x68,
  0x77, 0x69, 0x73, 0x65, 0x5f, 0x63, 0x6f, 0x6e, 0x76, 0x32, 0x64, 0x5f,
  0x38, 0x2f, 0x79, 0x3a, 0x30, 0x12, 0x0b, 0x43, 0x6f, 0x6e, 0x76, 0x5f,
  0x5f, 0x33, 0x31, 0x39, 0x3a, 0x30, 0x1a, 0x09, 0x43, 0x6f, 0x6e, 0x76,
  0x5f, 0x5f, 0x33, 0x31, 0x39, 0x22, 0x04, 0x43, 0x6f, 0x6e, 0x76, 0x2a,
  0x12, 0x0a, 0x09, 0x64, 0x69, 0x6c, 0x61, 0x74, 0x69, 0x6f, 0x6e, 0x73,
  0x40, 0x01, 0x40, 0x01, 0xa0, 0x01, 0x07, 0x2a, 0x10, 0x0a, 0x07, 0x73,
  0x74, 0x72, 0x69, 0x64, 0x65, 0x73, 0x40, 0x01, 0x40, 0x01, 0xa0, 0x01,
  0x07, 0x2a, 0x15, 0x0a, 0x0c, 0x6b, 0x65, 0x72, 0x6e, 0x65, 0x6c, 0x5f,
  0x73, 0x68, 0x61, 0x70, 0x65, 0x40, 0x03, 0x40, 0x03, 0xa0, 0x01, 0x07,
  0x2a, 0x0c, 0x0a, 0x05, 0x67, 0x72, 0x6f, 0x75, 0x70, 0x18, 0x18, 0xa0,
  0x01, 0x02, 0x2a, 0x11, 0x0a, 0x04, 0x70, 0x61, 0x64, 0x73, 0x40, 0x01,
  0x40, 0x01, 0x40, 0x01, 0x40, 0x01, 0xa0, 0x01, 0x07, 0x3a, 0x00, 0x0a,
  0x29, 0x0a, 0x0b, 0x43, 0x6f, 0x6e, 0x76, 0x5f, 0x5f, 0x33, 0x31, 0x39,
  0x3a, 0x30, 0x12, 0x0a, 0x72, 0x65, 0x5f, 0x6c, 0x75, 0x5f, 0x31, 0x35,
  0x3a, 0x30, 0x1a, 0x08, 0x72, 0x65, 0x5f, 0x6c, 0x75, 0x5f, 0x31, 0x35,
  0x22, 0x04, 0x52, 0x65, 0x6c, 0x75, 0x0a, 0x4d, 0x0a, 0x0a, 0x72, 0x65,
  0x5f, 0x6c, 0x75, 0x5f, 0x31, 0x34, 0x3a, 0x30, 0x0a, 0x0a, 0x72, 0x65,
  0x5f, 0x6c, 0x75, 0x5f, 0x31, 0x35, 0x3a, 0x30, 0x12, 0x17, 0x61, 0x64,
  0x64, 0x5f, 0x37, 0x5f, 0x5f, 0x78, 0x65, 0x6e, 0x6f, 0x5f, 0x63, 0x6f,
  0x6d, 0x70, 0x61, 0x74, 0x5f, 0x5f, 0x31, 0x3a, 0x30, 0x1a, 0x15, 0x61,
  0x64, 0x64, 0x5f, 0x37, 0x5f, 0x5f, 0x78, 0x65, 0x6e, 0x6f, 0x5f, 0x63,
  0x6f, 0x6d, 0x70, 0x61, 0x74, 0x5f, 0x5f, 0x31, 0x22, 0x03, 0x41, 0x64,
  0x64, 0x0a, 0x3c, 0x0a, 0x17, 0x61, 0x64, 0x64, 0x5f, 0x37, 0x5f, 0x5f,
  0x78, 0x65, 0x6e, 0x6f, 0x5f, 0x63, 0x6f, 0x6d, 0x70, 0x61, 0x74, 0x5f,
  0x5f, 0x31, 0x3a, 0x30, 0x12, 0x0c, 0x53, 0x68, 0x61, 0x70, 0x65, 0x5f,
  0x5f, 0x31, 0x37, 0x34, 0x3a, 0x30, 0x1a, 0x0a, 0x53, 0x68, 0x61, 0x70,
  0x65, 0x5f, 0x5f, 0x31, 0x37, 0x34, 0x22, 0x05, 0x53, 0x68, 0x61, 0x70,
  0x65, 0x3a, 0x00, 0x0a, 0x52, 0x0a, 0x0c, 0x53, 0x68, 0x61, 0x70, 0x65,
  0x5f, 0x5f, 0x31, 0x37, 0x34, 0x3a, 0x30, 0x0a, 0x0f, 0x63, 0x6f, 0x6e,
  0x73, 0x74, 0x5f, 0x7a, 0x65, 0x72, 0x6f, 0x5f, 0x5f, 0x31, 0x37, 0x30,
  0x0a, 0x0e, 0x63, 0x6f, 0x6e, 0x73, 0x74, 0x5f, 0x74, 0x77, 0x6f, 0x5f,
  0x5f, 0x31, 0x39, 0x36, 0x12, 0x0c, 0x53, 0x6c, 0x69, 0x63, 0x65, 0x5f,
  0x5f, 0x31, 0x37, 0x35, 0x3a, 0x30, 0x1a, 0x0a, 0x53, 0x6c, 0x69, 0x63,
  0x65, 0x5f, 0x5f, 0x31, 0x37, 0x35, 0x22, 0x05, 0x53, 0x6c, 0x69, 0x63,
  0x65, 0x3a, 0x00, 0x0a, 0x56, 0x0a, 0x0c, 0x53, 0x6c, 0x69, 0x63, 0x65,
  0x5f, 0x5f, 0x31, 0x37, 0x35, 0x3a, 0x30, 0x0a, 0x13, 0x63, 0x6f, 0x6e,
  0x73, 0x74, 0x5f, 0x66, 0x6f, 0x6c, 0x64, 0x5f, 0x6f, 0x70, 0x74, 0x5f,
  0x5f, 0x34, 0x38, 0x34, 0x12, 0x0d, 0x43, 0x6f, 0x6e, 0x63, 0x61, 0x74,
  0x5f, 0x5f, 0x31, 0x37, 0x37, 0x3a, 0x30, 0x1a, 0x0b, 0x43, 0x6f, 0x6e,
  0x63, 0x61, 0x74, 0x5f, 0x5f, 0x31, 0x37, 0x37, 0x22, 0x06, 0x43, 0x6f,
  0x6e, 0x63, 0x61, 0x74, 0x2a, 0x0b, 0x0a, 0x04, 0x61, 0x78, 0x69, 0x73,
  0x18, 0x00, 0xa0, 0x01, 0x02, 0x3a, 0x00, 0x0a, 0xd8, 0x01, 0x0a, 0x17,
  0x61, 0x64, 0x64, 0x5f, 0x37, 0x5f, 0x5f, 0x78, 0x65, 0x6e, 0x6f, 0x5f,
  0x63, 0x6f, 0x6d, 0x70, 0x61, 0x74, 0x5f, 0x5f, 0x31, 0x3a, 0x30, 0x0a,
  0x08, 0x72, 0x6f, 0x69, 0x5f, 0x5f, 0x31, 0x34, 0x34, 0x0a, 0x08, 0x72,
  0x6f, 0x69, 0x5f, 0x5f, 0x31, 0x34, 0x34, 0x0a, 0x0d, 0x43, 0x6f, 0x6e,
  0x63, 0x61, 0x74, 0x5f, 0x5f, 0x31, 0x37, 0x37, 0x3a, 0x30, 0x12, 0x0d,
  0x52, 0x65, 0x73, 0x69, 0x7a, 0x65, 0x5f, 0x5f, 0x31, 0x37, 0x38, 0x3a,
  0x30, 0x1a, 0x0b, 0x52, 0x65, 0x73, 0x69, 0x7a, 0x65, 0x5f, 0x5f, 0x31,
  0x37, 0x38, 0x22, 0x06, 0x52, 0x65, 0x73, 0x69, 0x7a, 0x65, 0x2a, 0x2f,
  0x0a, 0x1e, 0x63, 0x6f, 0x6f, 0x72, 0x64, 0x69, 0x6e, 0x61, 0x74, 0x65,
  0x5f, 0x74, 0x72, 0x61, 0x6e, 0x73, 0x66, 0x6f, 0x72, 0x6d, 0x61, 0x74,
  0x69, 0x6f, 0x6e, 0x5f, 0x6d, 0x6f, 0x64, 0x65, 0x22, 0x0a, 0x68, 0x61,
  0x6c, 0x66, 0x5f, 0x70, 0x69, 0x78, 0x65, 0x6c, 0xa0, 0x01, 0x03, 0x2a,
  0x16, 0x0a, 0x0f, 0x65, 0x78, 0x63, 0x6c, 0x75, 0x64, 0x65, 0x5f, 0x6f,
  0x75, 0x74, 0x73, 0x69, 0x64, 0x65, 0x18, 0x00, 0xa0, 0x01, 0x02, 0x2a,
  0x11, 0x0a, 0x04, 0x6d, 0x6f, 0x64, 0x65, 0x22, 0x06, 0x6c, 0x69, 0x6e,
  0x65, 0x61, 0x72, 0xa0, 0x01, 0x03, 0x2a, 0x18, 0x0a, 0x0c, 0x6e, 0x65,
  0x61, 0x72, 0x65, 0x73, 0x74, 0x5f, 0x6d, 0x6f, 0x64, 0x65, 0x22, 0x05,
  0x66, 0x6c, 0x6f, 0x6f, 0x72, 0xa0, 0x01, 0x03, 0x3a, 0x00, 0x0a, 0x91,
  0x01, 0x0a, 0x0d, 0x52, 0x65, 0x73, 0x69, 0x7a, 0x65, 0x5f, 0x5f, 0x31,
  0x37, 0x38, 0x3a, 0x30, 0x0a, 0x12, 0x43, 0x6f, 0x6e, 0x76, 0x32, 0x44,
  0x5f, 0x33, 0x36, 0x2f, 0x66, 0x69, 0x6c, 0x74, 0x65, 0x72, 0x3a, 0x30,
  0x0a, 0x0f, 0x63, 0x6f, 0x6e, 0x76, 0x32, 0x64, 0x5f, 0x33, 0x35, 0x5f,
  0x31, 0x2f, 0x79, 0x3a, 0x30, 0x12, 0x0b, 0x43, 0x6f, 0x6e, 0x76, 0x5f,
  0x5f, 0x33, 0x32, 0x30, 0x3a, 0x30, 0x1a, 0x09, 0x43, 0x6f, 0x6e, 0x76,
  0x5f, 0x5f, 0x33, 0x32, 0x30, 0x22, 0x04, 0x43, 0x6f, 0x6e, 0x76, 0x2a,
  0x12, 0x0a, 0x09, 0x64, 0x69, 0x6c, 0x61, 0x74, 0x69, 0x6f, 0x6e, 0x73,
  0x40, 0x01, 0x40, 0x01, 0xa0, 0x01, 0x07, 0x2a, 0x10, 0x0a, 0x07, 0x73,
  0x74, 0x72, 0x69, 0x64, 0x65, 0x73, 0x40, 0x01, 0x40, 0x01, 0xa0, 0x01,
  0x07, 0x2a, 0x15, 0x0a, 0x0c, 0x6b, 0x65, 0x72, 0x6e, 0x65, 0x6c, 0x5f,
  0x73, 0x68, 0x61, 0x70, 0x65, 0x40, 0x01, 0x40, 0x01, 0xa0, 0x01, 0x07,
  0x3a, 0x00, 0x0a, 0x4f, 0x0a, 0x0b, 0x43, 0x6f, 0x6e, 0x76, 0x5f, 0x5f,
  0x32, 0x33, 0x30, 0x3a, 0x30, 0x0a, 0x0b, 0x43, 0x6f, 0x6e, 0x76, 0x5f,
  0x5f, 0x33, 0x32, 0x30, 0x3a, 0x30, 0x12, 0x17, 0x61, 0x64, 0x64, 0x5f,
  0x38, 0x5f, 0x5f, 0x78, 0x65, 0x6e, 0x6f, 0x5f, 0x63, 0x6f, 0x6d, 0x70,
  0x61, 0x74, 0x5f, 0x5f, 0x31, 0x3a, 0x30, 0x1a, 0x15, 0x61, 0x64, 0x64,
  0x5f, 0x38, 0x5f, 0x5f, 0x78, 0x65, 0x6e, 0x6f, 0x5f, 0x63, 0x6f, 0x6d,
  0x70, 0x61, 0x74, 0x5f, 0x5f, 0x31, 0x22, 0x03, 0x41, 0x64, 0x64, 0x0a,
  0x9b, 0x01, 0x0a, 0x17, 0x61, 0x64, 0x64, 0x5f, 0x38, 0x5f, 0x5f, 0x78,
  0x65, 0x6e, 0x6f, 0x5f, 0x63, 0x6f, 0x6d, 0x70, 0x61, 0x74, 0x5f, 0x5f,
  0x31, 0x3a, 0x30, 0x12, 0x25, 0x61, 0x76, 0x65, 0x72, 0x61, 0x67, 0x65,
  0x5f, 0x70, 0x6f, 0x6f, 0x6c, 0x69, 0x6e, 0x67, 0x32, 0x64, 0x5f, 0x38,
  0x5f, 0x61, 0x76, 0x67, 0x70, 0x6f, 0x6f, 0x6c, 0x2f, 0x41, 0x76, 0x67,
  0x50, 0x6f, 0x6f, 0x6c, 0x3a, 0x30, 0x1a, 0x23, 0x61, 0x76, 0x65, 0x72,
  0x61, 0x67, 0x65, 0x5f, 0x70, 0x6f, 0x6f, 0x6c, 0x69, 0x6e, 0x67, 0x32,
  0x64, 0x5f, 0x38, 0x5f, 0x61, 0x76, 0x67, 0x70, 0x6f, 0x6f, 0x6c, 0x2f,
  0x41, 0x76, 0x67, 0x50, 0x6f, 0x6f, 0x6c, 0x22, 0x0b, 0x41, 0x76, 0x65,
  0x72, 0x61, 0x67, 0x65, 0x50, 0x6f, 0x6f, 0x6c, 0x2a, 0x10, 0x0a, 0x07,
  0x73, 0x74, 0x72, 0x69, 0x64, 0x65, 0x73, 0x40, 0x40, 0x40, 0x40, 0xa0,
  0x01, 0x07, 0x2a, 0x15, 0x0a, 0x0c, 0x6b, 0x65, 0x72, 0x6e, 0x65, 0x6c,
  0x5f, 0x73, 0x68, 0x61, 0x70, 0x65, 0x40, 0x40, 0x40, 0x40, 0xa0, 0x01,
  0x07, 0x0a, 0xa9, 0x01, 0x0a, 0x25, 0x61, 0x76, 0x65, 0x72, 0x61, 0x67,
  0x65, 0x5f, 0x70, 0x6f, 0x6f, 0x6c, 0x69, 0x6e, 0x67, 0x32, 0x64, 0x5f,
  0x38, 0x5f, 0x61, 0x76, 0x67, 0x70, 0x6f, 0x6f, 0x6c, 0x2f, 0x41, 0x76,
  0x67, 0x50, 0x6f, 0x6f, 0x6c, 0x3a, 0x30, 0x0a, 0x12, 0x43, 0x6f, 0x6e,
  0x76, 0x32, 0x44, 0x5f, 0x33, 0x37, 0x2f, 0x66, 0x69, 0x6c, 0x74, 0x65,
  0x72, 0x3a, 0x30, 0x0a, 0x0f, 0x63, 0x6f, 0x6e, 0x76, 0x32, 0x64, 0x5f,
  0x33, 0x36, 0x5f, 0x31, 0x2f, 0x79, 0x3a, 0x30, 0x12, 0x0b, 0x43, 0x6f,
  0x6e, 0x76, 0x5f, 0x5f, 0x33, 0x33, 0x33, 0x3a, 0x30, 0x1a, 0x09, 0x43,
  0x6f, 0x6e, 0x76, 0x5f, 0x5f, 0x33, 0x33, 0x33, 0x22, 0x04, 0x43, 0x6f,
  0x6e, 0x76, 0x2a, 0x12, 0x0a, 0x09, 0x64, 0x69, 0x6c, 0x61, 0x74, 0x69,
  0x6f, 0x6e, 0x73, 0x40, 0x01, 0x40, 0x01, 0xa0, 0x01, 0x07, 0x2a, 0x10,
  0x0a, 0x07, 0x73, 0x74, 0x72, 0x69, 0x64, 0x65, 0x73, 0x40, 0x01, 0x40,
  0x01, 0xa0, 0x01, 0x07, 0x2a, 0x15, 0x0a, 0x0c, 0x6b, 0x65, 0x72, 0x6e,
  0x65, 0x6c, 0x5f, 0x73, 0x68, 0x61, 0x70, 0x65, 0x40, 0x01, 0x40, 0x01,
  0xa0, 0x01, 0x07, 0x3a, 0x00, 0x0a, 0x29, 0x0a, 0x0b, 0x43, 0x6f, 0x6e,
  0x76, 0x5f, 0x5f, 0x33, 0x33, 0x33, 0x3a, 0x30, 0x12, 0x0a, 0x72, 0x65,
  0x5f, 0x6c, 0x75, 0x5f, 0x31, 0x36, 0x3a, 0x30, 0x1a, 0x08, 0x72, 0x65,
  0x5f, 0x6c, 0x75, 0x5f, 0x31, 0x36, 0x22, 0x04, 0x52, 0x65, 0x6c, 0x75,
  0x0a, 0x8e, 0x01, 0x0a, 0x0a, 0x72, 0x65, 0x5f, 0x6c, 0x75, 0x5f, 0x31,
  0x36, 0x3a, 0x30, 0x0a, 0x12, 0x43, 0x6f, 0x6e, 0x76, 0x32, 0x44, 0x5f,
  0x33, 0x38, 0x2f, 0x66, 0x69, 0x6c, 0x74, 0x65, 0x72, 0x3a, 0x30, 0x0a,
  0x0f, 0x63, 0x6f, 0x6e, 0x76, 0x32, 0x64, 0x5f, 0x33, 0x37, 0x5f, 0x31,
  0x2f, 0x79, 0x3a, 0x30, 0x12, 0x0b, 0x43, 0x6f, 0x6e, 0x76, 0x5f, 0x5f,
  0x33, 0x33, 0x34, 0x3a, 0x30, 0x1a, 0x09, 0x43, 0x6f, 0x6e, 0x76, 0x5f,
  0x5f, 0x33, 0x33, 0x34, 0x22, 0x04, 0x43, 0x6f, 0x6e, 0x76, 0x2a, 0x12,
  0x0a, 0x09, 0x64, 0x69, 0x6c, 0x61, 0x74, 0x69, 0x6f, 0x6e, 0x73, 0x40,
  0x01, 0x40, 0x01, 0xa0, 0x01, 0x07, 0x2a, 0x10, 0x0a, 0x07, 0x73, 0x74,
  0x72, 0x69, 0x64, 0x65, 0x73, 0x40, 0x01, 0x40, 0x01, 0xa0, 0x01, 0x07,
  0x2a, 0x15, 0x0a, 0x0c, 0x6b, 0x65, 0x72, 0x6e, 0x65, 0x6c, 0x5f, 0x73,
  0x68, 0x61, 0x70, 0x65, 0x40, 0x01, 0x40, 0x01, 0xa0, 0x01, 0x07, 0x3a,
  0x00, 0x0a, 0x34, 0x0a, 0x0b, 0x43, 0x6f, 0x6e, 0x76, 0x5f, 0x5f, 0x33,
  0x33, 0x34, 0x3a, 0x30, 0x12, 0x0e, 0x61, 0x63, 0x74, 0x69, 0x76, 0x61,
  0x74, 0x69, 0x6f, 0x6e, 0x5f, 0x38, 0x3a, 0x30, 0x1a, 0x0c, 0x61, 0x63,
  0x74, 0x69, 0x76, 0x61, 0x74, 0x69, 0x6f, 0x6e, 0x5f, 0x38, 0x22, 0x07,
  0x53, 0x69, 0x67, 0x6d, 0x6f, 0x69, 0x64, 0x0a, 0x3c, 0x0a, 0x0b, 0x43,
  0x6f, 0x6e, 0x76, 0x5f, 0x5f, 0x32, 0x33, 0x30, 0x3a, 0x30, 0x0a, 0x0e,
  0x61, 0x63, 0x74, 0x69, 0x76, 0x61, 0x74, 0x69, 0x6f, 0x6e, 0x5f, 0x38,
  0x3a, 0x30, 0x12, 0x0c, 0x6d, 0x75, 0x6c, 0x74, 0x69, 0x70, 0x6c, 0x79,
  0x5f, 0x38, 0x3a, 0x30, 0x1a, 0x0a, 0x6d, 0x75, 0x6c, 0x74, 0x69, 0x70,
  0x6c, 0x79, 0x5f, 0x38, 0x22, 0x03, 0x4d, 0x75, 0x6c, 0x0a, 0x50, 0x0a,
  0x0c, 0x6d, 0x75, 0x6c, 0x74, 0x69, 0x70, 0x6c, 0x79, 0x5f, 0x38, 0x3a,
  0x30, 0x0a, 0x0b, 0x43, 0x6f, 0x6e, 0x76, 0x5f, 0x5f, 0x33, 0x32, 0x30,
  0x3a, 0x30, 0x12, 0x17, 0x61, 0x64, 0x64, 0x5f, 0x39, 0x5f, 0x5f, 0x78,
  0x65, 0x6e, 0x6f, 0x5f, 0x63, 0x6f, 0x6d, 0x70, 0x61, 0x74, 0x5f, 0x5f,
  0x31, 0x3a, 0x30, 0x1a, 0x15, 0x61, 0x64, 0x64, 0x5f, 0x39, 0x5f, 0x5f,
  0x78, 0x65, 0x6e, 0x6f, 0x5f, 0x63, 0x6f, 0x6d, 0x70, 0x61, 0x74, 0x5f,
  0x5f, 0x31, 0x22, 0x03, 0x41, 0x64, 0x64, 0x0a, 0x9b, 0x01, 0x0a, 0x17,
  0x61, 0x64, 0x64, 0x5f, 0x39, 0x5f, 0x5f, 0x78, 0x65, 0x6e, 0x6f, 0x5f,
  0x63, 0x6f, 0x6d, 0x70, 0x61, 0x74, 0x5f, 0x5f, 0x31, 0x3a, 0x30, 0x0a,
  0x12, 0x43, 0x6f, 0x6e, 0x76, 0x32, 0x44, 0x5f, 0x33, 0x39, 0x2f, 0x66,
  0x69, 0x6c, 0x74, 0x65, 0x72, 0x3a, 0x30, 0x0a, 0x0f, 0x63, 0x6f, 0x6e,
  0x76, 0x32, 0x64, 0x5f, 0x33, 0x38, 0x5f, 0x31, 0x2f, 0x79, 0x3a, 0x30,
  0x12, 0x0b, 0x43, 0x6f, 0x6e, 0x76, 0x5f, 0x5f, 0x33, 0x33, 0x35, 0x3a,
  0x30, 0x1a, 0x09, 0x43, 0x6f, 0x6e, 0x76, 0x5f, 0x5f, 0x33, 0x33, 0x35,
  0x22, 0x04, 0x43, 0x6f, 0x6e, 0x76, 0x2a, 0x12, 0x0a, 0x09, 0x64, 0x69,
  0x6c, 0x61, 0x74, 0x69, 0x6f, 0x6e, 0x73, 0x40, 0x01, 0x40, 0x01, 0xa0,
  0x01, 0x07, 0x2a, 0x10, 0x0a, 0x07, 0x73, 0x74, 0x72, 0x69, 0x64, 0x65,
  0x73, 0x40, 0x01, 0x40, 0x01, 0xa0, 0x01, 0x07, 0x2a, 0x15, 0x0a, 0x0c,
  0x6b, 0x65, 0x72, 0x6e, 0x65, 0x6c, 0x5f, 0x73, 0x68, 0x61, 0x70, 0x65,
  0x40, 0x01, 0x40, 0x01, 0xa0, 0x01, 0x07, 0x3a, 0x00, 0x0a, 0x29, 0x0a,
  0x0b, 0x43, 0x6f, 0x6e, 0x76, 0x5f, 0x5f, 0x33, 0x33, 0x35, 0x3a, 0x30,
  0x12, 0x0a, 0x72, 0x65, 0x5f, 0x6c, 0x75, 0x5f, 0x31, 0x37, 0x3a, 0x30,
  0x1a, 0x08, 0x72, 0x65, 0x5f, 0x6c, 0x75, 0x5f, 0x31, 0x37, 0x22, 0x04,
  0x52, 0x65, 0x6c, 0x75, 0x0a, 0xb7, 0x01, 0x0a, 0x0a, 0x72, 0x65, 0x5f,
  0x6c, 0x75, 0x5f, 0x31, 0x37, 0x3a, 0x30, 0x0a, 0x13, 0x63, 0x6f, 0x6e,
  0x73, 0x74, 0x5f, 0x66, 0x6f, 0x6c, 0x64, 0x5f, 0x6f, 0x70, 0x74, 0x5f,
  0x5f, 0x34, 0x37, 0x39, 0x0a, 0x16, 0x64, 0x65, 0x70, 0x74, 0x68, 0x77,
  0x69, 0x73, 0x65, 0x5f, 0x63, 0x6f, 0x6e, 0x76, 0x32, 0x64, 0x5f, 0x39,
  0x2f, 0x79, 0x3a, 0x30, 0x12, 0x0b, 0x43, 0x6f, 0x6e, 0x76, 0x5f, 0x5f,
  0x33, 0x33, 0x38, 0x3a, 0x30, 0x1a, 0x09, 0x43, 0x6f, 0x6e, 0x76, 0x5f,
  0x5f, 0x33, 0x33, 0x38, 0x22, 0x04, 0x43, 0x6f, 0x6e, 0x76, 0x2a, 0x12,
  0x0a, 0x09, 0x64, 0x69, 0x6c, 0x61, 0x74, 0x69, 0x6f, 0x6e, 0x73, 0x40,
  0x01, 0x40, 0x01, 0xa0, 0x01, 0x07, 0x2a, 0x10, 0x0a, 0x07, 0x73, 0x74,
  0x72, 0x69, 0x64, 0x65, 0x73, 0x40, 0x01, 0x40, 0x01, 0xa0, 0x01, 0x07,
  0x2a, 0x15, 0x0a, 0x0c, 0x6b, 0x65, 0x72, 0x6e, 0x65, 0x6c, 0x5f, 0x73,
  0x68, 0x61, 0x70, 0x65, 0x40, 0x03, 0x40, 0x03, 0xa0, 0x01, 0x07, 0x2a,
  0x0c, 0x0a, 0x05, 0x67, 0x72, 0x6f, 0x75, 0x70, 0x18, 0x10, 0xa0, 0x01,
  0x02, 0x2a, 0x11, 0x0a, 0x04, 0x70, 0x61, 0x64, 0x73, 0x40, 0x01, 0x40,
  0x01, 0x40, 0x01, 0x40, 0x01, 0xa0, 0x01, 0x07, 0x3a, 0x00, 0x0a, 0x29,
  0x0a, 0x0b, 0x43, 0x6f, 0x6e, 0x76, 0x5f, 0x5f, 0x33, 0x33, 0x38, 0x3a,
  0x30, 0x12, 0x0a, 0x72, 0x65, 0x5f, 0x6c, 0x75, 0x5f, 0x31, 0x38, 0x3a,
  0x30, 0x1a, 0x08, 0x72, 0x65, 0x5f, 0x6c, 0x75, 0x5f, 0x31, 0x38, 0x22,
  0x04, 0x52, 0x65, 0x6c, 0x75, 0x0a, 0x4f, 0x0a, 0x0a, 0x72, 0x65, 0x5f,
  0x6c, 0x75, 0x5f, 0x31, 0x37, 0x3a, 0x30, 0x0a, 0x0a, 0x72, 0x65, 0x5f,
  0x6c, 0x75, 0x5f, 0x31, 0x38, 0x3a, 0x30, 0x12, 0x18, 0x61, 0x64, 0x64,
  0x5f, 0x31, 0x30, 0x5f, 0x5f, 0x78, 0x65, 0x6e, 0x6f, 0x5f, 0x63, 0x6f,
  0x6d, 0x70, 0x61, 0x74, 0x5f, 0x5f, 0x31, 0x3a, 0x30, 0x1a, 0x16, 0x61,
  0x64, 0x64, 0x5f, 0x31, 0x30, 0x5f, 0x5f, 0x78, 0x65, 0x6e, 0x6f, 0x5f,
  0x63, 0x6f, 0x6d, 0x70, 0x61, 0x74, 0x5f, 0x5f, 0x31, 0x22, 0x03, 0x41,
  0x64, 0x64, 0x0a, 0x3d, 0x0a, 0x18, 0x61, 0x64, 0x64, 0x5f, 0x31, 0x30,
  0x5f, 0x5f, 0x78, 0x65, 0x6e, 0x6f, 0x5f, 0x63, 0x6f, 0x6d, 0x70, 0x61,
  0x74, 0x5f, 0x5f, 0x31, 0x3a, 0x30, 0x12, 0x0c, 0x53, 0x68, 0x61, 0x70,
  0x65, 0x5f, 0x5f, 0x31, 0x39, 0x39, 0x3a, 0x30, 0x1a, 0x0a, 0x53, 0x68,
  0x61, 0x70, 0x65, 0x5f, 0x5f, 0x31, 0x39, 0x39, 0x22, 0x05, 0x53, 0x68,
  0x61, 0x70, 0x65, 0x3a, 0x00, 0x0a, 0x52, 0x0a, 0x0c, 0x53, 0x68, 0x61,
  0x70, 0x65, 0x5f, 0x5f, 0x31, 0x39, 0x39, 0x3a, 0x30, 0x0a, 0x0f, 0x63,
  0x6f, 0x6e, 0x73, 0x74, 0x5f, 0x7a, 0x65, 0x72, 0x6f, 0x5f, 0x5f, 0x31,
  0x37, 0x30, 0x0a, 0x0e, 0x63, 0x6f, 0x6e, 0x73, 0x74, 0x5f, 0x74, 0x77,
  0x6f, 0x5f, 0x5f, 0x31, 0x39, 0x36, 0x12, 0x0c, 0x53, 0x6c, 0x69, 0x63,
  0x65, 0x5f, 0x5f, 0x32, 0x30, 0x30, 0x3a, 0x30, 0x1a, 0x0a, 0x53, 0x6c,
  0x69, 0x63, 0x65, 0x5f, 0x5f, 0x32, 0x30, 0x30, 0x22, 0x05, 0x53, 0x6c,
  0x69, 0x63, 0x65, 0x3a, 0x00, 0x0a, 0x56, 0x0a, 0x0c, 0x53, 0x6c, 0x69,
  0x63, 0x65, 0x5f, 0x5f, 0x32, 0x30, 0x30, 0x3a, 0x30, 0x0a, 0x13, 0x63,
  0x6f, 0x6e, 0x73, 0x74, 0x5f, 0x66, 0x6f, 0x6c, 0x64, 0x5f, 0x6f, 0x70,
  0x74, 0x5f, 0x5f, 0x34, 0x38, 0x32, 0x12, 0x0d, 0x43, 0x6f, 0x6e, 0x63,
  0x61, 0x74, 0x5f, 0x5f, 0x32, 0x30, 0x32, 0x3a, 0x30, 0x1a, 0x0b, 0x43,
  0x6f, 0x6e, 0x63, 0x61, 0x74, 0x5f, 0x5f, 0x32, 0x30, 0x32, 0x22, 0x06,
  0x43, 0x6f, 0x6e, 0x63, 0x61, 0x74, 0x2a, 0x0b, 0x0a, 0x04, 0x61, 0x78,
  0x69, 0x73, 0x18, 0x00, 0xa0, 0x01, 0x02, 0x3a, 0x00, 0x0a, 0xd9, 0x01,
  0x0a, 0x18, 0x61, 0x64, 0x64, 0x5f, 0x31, 0x30, 0x5f, 0x5f, 0x78, 0x65,
  0x6e, 0x6f, 0x5f, 0x63, 0x6f, 0x6d, 0x70, 0x61, 0x74, 0x5f, 0x5f, 0x31,
  0x3a, 0x30, 0x0a, 0x08, 0x72, 0x6f, 0x69, 0x5f, 0x5f, 0x31, 0x34, 0x34,
  0x0a, 0x08, 0x72, 0x6f, 0x69, 0x5f, 0x5f, 0x31, 0x34, 0x34, 0x0a, 0x0d,
  0x43, 0x6f, 0x6e, 0x63, 0x61, 0x74, 0x5f, 0x5f, 0x32, 0x30, 0x32, 0x3a,
  0x30, 0x12, 0x0d, 0x52, 0x65, 0x73, 0x69, 0x7a, 0x65, 0x5f, 0x5f, 0x32,
  0x30, 0x33, 0x3a, 0x30, 0x1a, 0x0b, 0x52, 0x65, 0x73, 0x69, 0x7a, 0x65,
  0x5f, 0x5f, 0x32, 0x30, 0x33, 0x22, 0x06, 0x52, 0x65, 0x73, 0x69, 0x7a,
  0x65, 0x2a, 0x2f, 0x0a, 0x1e, 0x63, 0x6f, 0x6f, 0x72, 0x64, 0x69, 0x6e,
  0x61, 0x74, 0x65, 0x5f, 0x74, 0x72, 0x61, 0x6e, 0x73, 0x66, 0x6f, 0x72,
  0x6d, 0x61, 0x74, 0x69, 0x6f, 0x6e, 0x5f, 0x6d, 0x6f, 0x64, 0x65, 0x22,
  0x0a, 0x68, 0x61, 0x6c, 0x66, 0x5f, 0x70, 0x69, 0x78, 0x65, 0x6c, 0xa0,
  0x01, 0x03, 0x2a, 0x16, 0x0a, 0x0f, 0x65, 0x78, 0x63, 0x6c, 0x75, 0x64,
  0x65, 0x5f, 0x6f, 0x75, 0x74, 0x73, 0x69, 0x64, 0x65, 0x18, 0x00, 0xa0,
  0x01, 0x02, 0x2a, 0x11, 0x0a, 0x04, 0x6d, 0x6f, 0x64, 0x65, 0x22, 0x06,
  0x6c, 0x69, 0x6e, 0x65, 0x61, 0x72, 0xa0, 0x01, 0x03, 0x2a, 0x18, 0x0a,
  0x0c, 0x6e, 0x65, 0x61, 0x72, 0x65, 0x73, 0x74, 0x5f, 0x6d, 0x6f, 0x64,
  0x65, 0x22, 0x05, 0x66, 0x6c, 0x6f, 0x6f, 0x72, 0xa0, 0x01, 0x03, 0x3a,
  0x00, 0x0a, 0x91, 0x01, 0x0a, 0x0d, 0x52, 0x65, 0x73, 0x69, 0x7a, 0x65,
  0x5f, 0x5f, 0x32, 0x30, 0x33, 0x3a, 0x30, 0x0a, 0x12, 0x43, 0x6f, 0x6e,
  0x76, 0x32, 0x44, 0x5f, 0x34, 0x30, 0x2f, 0x66, 0x69, 0x6c, 0x74, 0x65,
  0x72, 0x3a, 0x30, 0x0a, 0x0f, 0x63, 0x6f, 0x6e, 0x76, 0x32, 0x64, 0x5f,
  0x33, 0x39, 0x5f, 0x31, 0x2f, 0x79, 0x3a, 0x30, 0x12, 0x0b, 0x43, 0x6f,
  0x6e, 0x76, 0x5f, 0x5f, 0x33, 0x33, 0x39, 0x3a, 0x30, 0x1a, 0x09, 0x43,
  0x6f, 0x6e, 0x76, 0x5f, 0x5f, 0x33, 0x33, 0x39, 0x22, 0x04, 0x43, 0x6f,
  0x6e, 0x76, 0x2a, 0x12, 0x0a, 0x09, 0x64, 0x69, 0x6c, 0x61, 0x74, 0x69,
  0x6f, 0x6e, 0x73, 0x40, 0x01, 0x40, 0x01, 0xa0, 0x01, 0x07, 0x2a, 0x10,
